// Auto-generated from bridge_model.tflite
// Run: python3 generate_model_header.py

#ifndef BRIDGE_MODEL_H
#define BRIDGE_MODEL_H

const unsigned char bridge_model_tflite[] = {
  0x20, 0x00, 0x00, 0x00, 0x54, 0x46, 0x4c, 0x33, 0x00, 0x00, 0x00, 0x00,
  0x14, 0x00, 0x20, 0x00, 0x1c, 0x00, 0x18, 0x00, 0x14, 0x00, 0x10, 0x00,
  0x0c, 0x00, 0x00, 0x00, 0x08, 0x00, 0x04, 0x00, 0x14, 0x00, 0x00, 0x00,
  0x1c, 0x00, 0x00, 0x00, 0x8c, 0x00, 0x00, 0x00, 0x0c, 0x01, 0x00, 0x00,
  0xf8, 0x23, 0x00, 0x00, 0x08, 0x24, 0x00, 0x00, 0x38, 0x34, 0x00, 0x00,
  0x03, 0x00, 0x00, 0x00, 0x01, 0x00, 0x00, 0x00, 0x04, 0x00, 0x00, 0x00,
  0xba, 0xdb, 0xff, 0xff, 0x0c, 0x00, 0x00, 0x00, 0x1c, 0x00, 0x00, 0x00,
  0x3c, 0x00, 0x00, 0x00, 0x0f, 0x00, 0x00, 0x00, 0x73, 0x65, 0x72, 0x76,
  0x69, 0x6e, 0x67, 0x5f, 0x64, 0x65, 0x66, 0x61, 0x75, 0x6c, 0x74, 0x00,
  0x01, 0x00, 0x00, 0x00, 0x04, 0x00, 0x00, 0x00, 0x68, 0xff, 0xff, 0xff,
  0x0a, 0x00, 0x00, 0x00, 0x04, 0x00, 0x00, 0x00, 0x08, 0x00, 0x00, 0x00,
  0x6f, 0x75, 0x74, 0x70, 0x75, 0x74, 0x5f, 0x30, 0x00, 0x00, 0x00, 0x00,
  0x01, 0x00, 0x00, 0x00, 0x04, 0x00, 0x00, 0x00, 0x8e, 0xdc, 0xff, 0xff,
  0x04, 0x00, 0x00, 0x00, 0x0c, 0x00, 0x00, 0x00, 0x6b, 0x65, 0x72, 0x61,
  0x73, 0x5f, 0x74, 0x65, 0x6e, 0x73, 0x6f, 0x72, 0x00, 0x00, 0x00, 0x00,
  0x03, 0x00, 0x00, 0x00, 0x5c, 0x00, 0x00, 0x00, 0x2c, 0x00, 0x00, 0x00,
  0x04, 0x00, 0x00, 0x00, 0xb8, 0xff, 0xff, 0xff, 0x0e, 0x00, 0x00, 0x00,
  0x04, 0x00, 0x00, 0x00, 0x13, 0x00, 0x00, 0x00, 0x43, 0x4f, 0x4e, 0x56,
  0x45, 0x52, 0x53, 0x49, 0x4f, 0x4e, 0x5f, 0x4d, 0x45, 0x54, 0x41, 0x44,
  0x41, 0x54, 0x41, 0x00, 0xdc, 0xff, 0xff, 0xff, 0x0d, 0x00, 0x00, 0x00,
  0x04, 0x00, 0x00, 0x00, 0x13, 0x00, 0x00, 0x00, 0x6d, 0x69, 0x6e, 0x5f,
  0x72, 0x75, 0x6e, 0x74, 0x69, 0x6d, 0x65, 0x5f, 0x76, 0x65, 0x72, 0x73,
  0x69, 0x6f, 0x6e, 0x00, 0x08, 0x00, 0x0c, 0x00, 0x08, 0x00, 0x04, 0x00,
  0x08, 0x00, 0x00, 0x00, 0x0c, 0x00, 0x00, 0x00, 0x04, 0x00, 0x00, 0x00,
  0x13, 0x00, 0x00, 0x00, 0x6d, 0x69, 0x6e, 0x5f, 0x72, 0x75, 0x6e, 0x74,
  0x69, 0x6d, 0x65, 0x5f, 0x76, 0x65, 0x72, 0x73, 0x69, 0x6f, 0x6e, 0x00,
  0x0f, 0x00, 0x00, 0x00, 0xe8, 0x22, 0x00, 0x00, 0xe0, 0x22, 0x00, 0x00,
  0xcc, 0x22, 0x00, 0x00, 0x94, 0x22, 0x00, 0x00, 0x04, 0x22, 0x00, 0x00,
  0xf4, 0x19, 0x00, 0x00, 0xe4, 0x18, 0x00, 0x00, 0xd4, 0x00, 0x00, 0x00,
  0xcc, 0x00, 0x00, 0x00, 0xc4, 0x00, 0x00, 0x00, 0xbc, 0x00, 0x00, 0x00,
  0xb4, 0x00, 0x00, 0x00, 0x94, 0x00, 0x00, 0x00, 0x74, 0x00, 0x00, 0x00,
  0x04, 0x00, 0x00, 0x00, 0x6e, 0xdd, 0xff, 0xff, 0x04, 0x00, 0x00, 0x00,
  0x60, 0x00, 0x00, 0x00, 0x0c, 0x00, 0x00, 0x00, 0x08, 0x00, 0x0e, 0x00,
  0x08, 0x00, 0x04, 0x00, 0x08, 0x00, 0x00, 0x00, 0x10, 0x00, 0x00, 0x00,
  0x28, 0x00, 0x00, 0x00, 0x00, 0x00, 0x06, 0x00, 0x08, 0x00, 0x04, 0x00,
  0x06, 0x00, 0x00, 0x00, 0x04, 0x00, 0x00, 0x00, 0x01, 0x00, 0x00, 0x00,
  0xeb, 0x03, 0x00, 0x00, 0x0c, 0x00, 0x18, 0x00, 0x14, 0x00, 0x10, 0x00,
  0x0c, 0x00, 0x04, 0x00, 0x0c, 0x00, 0x00, 0x00, 0xe5, 0xb8, 0xc4, 0x84,
  0x69, 0x4e, 0xb5, 0x50, 0x02, 0x00, 0x00, 0x00, 0x02, 0x00, 0x00, 0x00,
  0x04, 0x00, 0x00, 0x00, 0x06, 0x00, 0x00, 0x00, 0x32, 0x2e, 0x31, 0x39,
  0x2e, 0x30, 0x00, 0x00, 0xda, 0xdd, 0xff, 0xff, 0x04, 0x00, 0x00, 0x00,
  0x10, 0x00, 0x00, 0x00, 0x00, 0x00, 0x00, 0x00, 0x00, 0x00, 0x00, 0x00,
  0x00, 0x00, 0x00, 0x00, 0x00, 0x00, 0x00, 0x00, 0xf6, 0xdd, 0xff, 0xff,
  0x04, 0x00, 0x00, 0x00, 0x10, 0x00, 0x00, 0x00, 0x31, 0x2e, 0x31, 0x34,
  0x2e, 0x30, 0x00, 0x00, 0x00, 0x00, 0x00, 0x00, 0x00, 0x00, 0x00, 0x00,
  0x50, 0xdd, 0xff, 0xff, 0x54, 0xdd, 0xff, 0xff, 0x58, 0xdd, 0xff, 0xff,
  0x5c, 0xdd, 0xff, 0xff, 0x22, 0xde, 0xff, 0xff, 0x04, 0x00, 0x00, 0x00,
  0x00, 0x18, 0x00, 0x00, 0x05, 0x01, 0xe1, 0xb8, 0x07, 0x41, 0xe0, 0x0a,
  0xf6, 0x42, 0x61, 0x53, 0x17, 0x28, 0xed, 0xd7, 0x23, 0x02, 0x2c, 0xf8,
  0xf7, 0x2c, 0x45, 0xca, 0xe2, 0x23, 0x0e, 0x1d, 0xed, 0xf4, 0x1f, 0xdb,
  0x01, 0x15, 0xcf, 0x02, 0x21, 0xec, 0xbc, 0x04, 0x55, 0x71, 0x76, 0x7f,
  0xf2, 0x48, 0x1c, 0x13, 0x02, 0xfb, 0x14, 0x33, 0x02, 0x41, 0xf6, 0x10,
  0xf3, 0x1f, 0xde, 0xec, 0xfe, 0x24, 0x02, 0x45, 0x09, 0xee, 0x1b, 0x19,
  0x3f, 0x2d, 0x31, 0xd0, 0x36, 0xf8, 0xf9, 0xef, 0x3e, 0xc7, 0xdf, 0x3a,
  0x14, 0xcb, 0x21, 0xfb, 0x10, 0xe2, 0xad, 0x14, 0x21, 0x01, 0x01, 0x21,
  0x09, 0xea, 0x04, 0x02, 0xd1, 0x12, 0x21, 0xd4, 0xdf, 0xdb, 0x9e, 0xe1,
  0x24, 0x2a, 0x7f, 0x10, 0xfc, 0x31, 0xcb, 0x35, 0x46, 0x06, 0xe9, 0xf9,
  0xfb, 0xe7, 0x2d, 0xe9, 0xd8, 0xe2, 0xe5, 0x27, 0xb3, 0xe7, 0xc9, 0xc8,
  0x26, 0xe0, 0x2d, 0xcc, 0x37, 0xdd, 0xe1, 0x09, 0x76, 0x7d, 0x23, 0x59,
  0x45, 0xd9, 0x32, 0x26, 0xfe, 0x42, 0xe9, 0xd8, 0x2c, 0xf5, 0xca, 0xf9,
  0x38, 0xef, 0xbc, 0x04, 0x49, 0x00, 0xe1, 0x1f, 0xda, 0x0f, 0xb8, 0x0b,
  0xe4, 0x2b, 0x21, 0xf5, 0xf4, 0xef, 0xba, 0xb5, 0x1f, 0xfa, 0x26, 0xc4,
  0xff, 0x0b, 0x39, 0x32, 0x20, 0x34, 0x10, 0xee, 0xed, 0x3b, 0xa2, 0x0b,
  0xc7, 0xf5, 0xef, 0xce, 0x1b, 0x0b, 0x04, 0x21, 0x17, 0xfc, 0x43, 0x02,
  0xe3, 0xf3, 0xcf, 0xa4, 0xc7, 0xd8, 0x35, 0x0e, 0x02, 0xe8, 0xc6, 0x22,
  0x05, 0x26, 0xc9, 0x01, 0xd1, 0x26, 0x1e, 0xf2, 0xf3, 0xda, 0x02, 0xdf,
  0xf5, 0xed, 0x24, 0x3c, 0x05, 0x09, 0xdb, 0x29, 0x90, 0x81, 0xad, 0x8c,
  0xdb, 0xd4, 0x07, 0xf3, 0x1c, 0x27, 0xed, 0x20, 0xfd, 0x27, 0xfe, 0xfc,
  0xfa, 0x2a, 0x33, 0x21, 0x0e, 0x2f, 0x2a, 0x05, 0x19, 0x2d, 0xfa, 0x10,
  0xf2, 0x13, 0x11, 0xf4, 0xee, 0x25, 0x00, 0x29, 0xf2, 0x38, 0xfe, 0x15,
  0x23, 0xf9, 0xf3, 0x27, 0x02, 0x14, 0x2f, 0x16, 0x36, 0xfa, 0x06, 0x1c,
  0x29, 0x22, 0x05, 0x1d, 0xde, 0xfd, 0x1b, 0x11, 0xcd, 0xc4, 0x10, 0x46,
  0x33, 0x13, 0x11, 0xdf, 0x34, 0xed, 0x16, 0x03, 0xc6, 0x0e, 0x04, 0xcd,
  0xfe, 0xe2, 0xda, 0x35, 0x3c, 0x3a, 0x1c, 0x3d, 0xf8, 0xd1, 0xd3, 0xf2,
  0xf5, 0x3c, 0x2c, 0xb8, 0x09, 0xe0, 0xfa, 0x04, 0x6c, 0x7f, 0x2e, 0xdc,
  0xd5, 0xd7, 0x24, 0x2e, 0x15, 0x43, 0x33, 0x00, 0x34, 0xc2, 0xf4, 0xcc,
  0x00, 0x11, 0x2e, 0xb8, 0xfb, 0xcd, 0x10, 0xd6, 0x10, 0xf0, 0xc9, 0x23,
  0x19, 0xe7, 0xaf, 0x10, 0xdb, 0xc7, 0x37, 0xed, 0xc5, 0x2e, 0xf8, 0xf8,
  0xbb, 0xd9, 0x17, 0x18, 0xd5, 0x29, 0x1a, 0xb4, 0x08, 0xdc, 0x45, 0xd1,
  0x34, 0x00, 0x43, 0x15, 0xe2, 0x1d, 0xf6, 0xf5, 0x11, 0xde, 0x9d, 0xb3,
  0x37, 0xe2, 0x3f, 0x39, 0xe6, 0x60, 0x16, 0x4d, 0xaf, 0x9e, 0xbd, 0xeb,
  0x35, 0xb2, 0x15, 0xc8, 0xf8, 0xdc, 0x04, 0x1b, 0xce, 0x43, 0xd4, 0x1a,
  0x0f, 0xd2, 0x2f, 0x93, 0x99, 0x1a, 0x4f, 0x07, 0x7f, 0x3a, 0xe0, 0x04,
  0x43, 0xe3, 0x9b, 0xb5, 0x2f, 0x97, 0x0d, 0x4b, 0x2f, 0xd1, 0x42, 0xbf,
  0x8a, 0xfd, 0xe2, 0x08, 0xfd, 0x2d, 0xb4, 0x47, 0x06, 0x1c, 0x4b, 0xff,
  0xe0, 0xa6, 0x04, 0xba, 0x4a, 0xe8, 0xf0, 0xfb, 0xbb, 0x4a, 0xd9, 0x0e,
  0x59, 0xa9, 0x33, 0xe9, 0xb4, 0x40, 0x46, 0x0b, 0xcc, 0x24, 0xfb, 0x13,
  0x06, 0x11, 0x15, 0xf8, 0xff, 0xef, 0xed, 0xcd, 0x0b, 0x27, 0x34, 0x38,
  0x37, 0x07, 0x23, 0xef, 0x2f, 0xd4, 0xcb, 0x11, 0xfc, 0x34, 0x1e, 0xf3,
  0xe0, 0xdb, 0xf3, 0xdc, 0x20, 0xe9, 0x19, 0xcf, 0xd2, 0xd7, 0x28, 0x02,
  0x1c, 0xc2, 0x07, 0x15, 0xc2, 0xec, 0xff, 0xef, 0x4b, 0x7f, 0x1f, 0x33,
  0x35, 0xfa, 0xc1, 0xed, 0xd3, 0x0e, 0xcc, 0xf7, 0xde, 0xc6, 0x29, 0xcb,
  0xf8, 0xd4, 0xdb, 0xfd, 0x02, 0x2a, 0x31, 0x22, 0x23, 0xe1, 0x18, 0xf1,
  0x40, 0xb3, 0x0d, 0xd6, 0x19, 0x1e, 0xca, 0xea, 0x1c, 0x0e, 0x39, 0xfd,
  0xeb, 0xb5, 0x3c, 0x15, 0xd9, 0x0b, 0xc6, 0xde, 0x34, 0xfa, 0x31, 0xd7,
  0x20, 0xe2, 0x1f, 0xe5, 0x06, 0x19, 0xbf, 0xa9, 0x9e, 0x50, 0x08, 0xca,
  0x5c, 0x48, 0xff, 0x1c, 0xdb, 0xd5, 0xf9, 0x28, 0x7f, 0x07, 0xc0, 0xc4,
  0x3d, 0xb7, 0x26, 0xb8, 0x56, 0x38, 0xcf, 0x69, 0xc5, 0xc1, 0x54, 0x69,
  0xae, 0xea, 0xe6, 0x22, 0x34, 0xb8, 0x8f, 0x77, 0x7d, 0x32, 0x71, 0x23,
  0xc7, 0x24, 0x0a, 0x47, 0xa1, 0x39, 0xbf, 0x07, 0xb5, 0xf7, 0xc8, 0xe6,
  0xc2, 0xfe, 0xf4, 0x3e, 0xcf, 0x28, 0xcf, 0x8e, 0x15, 0xf7, 0xa0, 0xb1,
  0x06, 0x09, 0x86, 0xaf, 0x20, 0x29, 0xf7, 0x09, 0xb4, 0xf8, 0xb4, 0x4e,
  0x2a, 0x0d, 0x29, 0x38, 0xbf, 0x34, 0xe1, 0xf6, 0x1a, 0xe6, 0x06, 0x4d,
  0x3f, 0xba, 0x1d, 0xb9, 0xff, 0x61, 0x37, 0x36, 0xf1, 0x7f, 0xe6, 0x52,
  0xd7, 0xcf, 0x11, 0xda, 0xfa, 0x9f, 0x25, 0xea, 0x45, 0xc1, 0xbd, 0xcd,
  0x34, 0xfa, 0x48, 0x3a, 0xd4, 0x18, 0xf8, 0xd4, 0xd3, 0x34, 0xbf, 0x2a,
  0xbd, 0xc7, 0x32, 0x09, 0x2f, 0x76, 0x0a, 0xba, 0xbb, 0xa8, 0xcb, 0xc2,
  0xff, 0x27, 0x3e, 0xf8, 0xcc, 0x20, 0x0f, 0x0f, 0x3f, 0x48, 0x35, 0xbb,
  0x55, 0x2b, 0x33, 0x1a, 0xc7, 0xfa, 0x21, 0x2d, 0x10, 0x20, 0xd4, 0x01,
  0xa8, 0xeb, 0xf5, 0x30, 0xb3, 0x0c, 0xdc, 0xe0, 0x03, 0x3f, 0xc8, 0x60,
  0x20, 0x07, 0x49, 0x17, 0xce, 0x07, 0x56, 0x00, 0x05, 0xed, 0x4a, 0x2d,
  0x17, 0x54, 0x04, 0x1c, 0xef, 0x4f, 0x13, 0x2e, 0x07, 0x0d, 0xc6, 0xf3,
  0x06, 0xfc, 0xa7, 0xd8, 0xf3, 0xb7, 0xc3, 0xd8, 0x4a, 0xd8, 0x0a, 0x08,
  0x34, 0x0e, 0x18, 0xf5, 0x19, 0x40, 0x10, 0x0f, 0x0d, 0xc1, 0xc3, 0x33,
  0x3b, 0x27, 0x0e, 0x1e, 0x07, 0x1b, 0xea, 0x1d, 0x9e, 0x81, 0xc3, 0xd8,
  0xff, 0xf8, 0x1e, 0x02, 0xce, 0xf9, 0xf1, 0x2c, 0x1d, 0x4c, 0x58, 0x3e,
  0xf8, 0x11, 0x00, 0xda, 0xe4, 0xd7, 0x48, 0x1d, 0x05, 0xd8, 0x25, 0x42,
  0xc0, 0x0a, 0x1d, 0x0d, 0x41, 0xce, 0x39, 0x0d, 0x3d, 0xe4, 0x44, 0x04,
  0x2c, 0x3a, 0xcf, 0x11, 0xdb, 0x57, 0xfb, 0x07, 0xe9, 0x4f, 0xfc, 0xe1,
  0xf5, 0x15, 0xe6, 0x1a, 0xc1, 0x01, 0x18, 0xc8, 0xb5, 0xf1, 0xea, 0x38,
  0xce, 0xb7, 0xeb, 0x40, 0x50, 0x5e, 0xe1, 0xe5, 0x39, 0x25, 0xe5, 0xec,
  0xfd, 0x37, 0xeb, 0xe9, 0x34, 0x04, 0x30, 0xf9, 0xe9, 0xd9, 0xfb, 0xbe,
  0xcb, 0x3e, 0x18, 0xae, 0x07, 0x06, 0xfc, 0xe3, 0xfa, 0xfc, 0xfa, 0x4e,
  0x7f, 0x23, 0x14, 0x25, 0xbd, 0xd2, 0xfe, 0xcd, 0xc1, 0x19, 0xfe, 0xf6,
  0xd0, 0x2b, 0xcb, 0x36, 0xdf, 0xff, 0x2f, 0x0d, 0x09, 0x2c, 0x06, 0xf8,
  0x08, 0x26, 0x45, 0x25, 0xfa, 0xf5, 0x1b, 0x44, 0xfe, 0xe7, 0xe5, 0xd6,
  0xbb, 0xf2, 0x32, 0xc4, 0x22, 0xeb, 0xd9, 0x12, 0xc7, 0xbc, 0xe0, 0x28,
  0x3b, 0x32, 0xec, 0xe9, 0xf9, 0xdd, 0x26, 0x06, 0x56, 0x15, 0xd8, 0x22,
  0xe6, 0xb7, 0xd3, 0xf1, 0xb8, 0xc1, 0xcf, 0x36, 0x02, 0xf3, 0x0e, 0x1c,
  0x03, 0x27, 0x14, 0xc9, 0x09, 0xf7, 0xed, 0x3d, 0x1d, 0xf7, 0x24, 0x0e,
  0xf6, 0xe5, 0x04, 0xee, 0xf5, 0x02, 0x07, 0xcd, 0xfc, 0xb6, 0x81, 0x98,
  0xb5, 0x01, 0xcc, 0xce, 0x18, 0x34, 0xd5, 0xd1, 0x11, 0xdb, 0x28, 0x17,
  0x00, 0x2e, 0x1e, 0x17, 0x09, 0xee, 0x22, 0x49, 0xde, 0x19, 0x39, 0x0b,
  0xe9, 0x24, 0x31, 0xe9, 0xec, 0x02, 0x01, 0xde, 0x26, 0xe9, 0x33, 0x11,
  0x39, 0x08, 0xef, 0x17, 0x17, 0xdf, 0x3f, 0x4a, 0x28, 0x23, 0xf1, 0xd5,
  0x10, 0x2f, 0x20, 0x35, 0x17, 0xea, 0x9a, 0xc9, 0xbf, 0xcf, 0x07, 0x32,
  0xae, 0x38, 0x0c, 0xea, 0x7f, 0xc8, 0x23, 0x2e, 0x26, 0x1b, 0x43, 0xe1,
  0x34, 0x2e, 0x58, 0xbe, 0x41, 0x45, 0x55, 0xcf, 0xa4, 0xb5, 0xd4, 0x48,
  0x37, 0x18, 0xac, 0xd8, 0xf5, 0x30, 0xaf, 0xcf, 0x97, 0xad, 0x66, 0xe7,
  0x58, 0x7d, 0x2b, 0xc2, 0x4a, 0xd5, 0xed, 0x19, 0x1d, 0xd8, 0xea, 0x34,
  0x33, 0x0d, 0xf3, 0x28, 0xc2, 0x35, 0x42, 0x5c, 0x15, 0x24, 0xaa, 0xc2,
  0x22, 0xc3, 0x69, 0xd2, 0xef, 0xb9, 0xf1, 0x2c, 0xec, 0x14, 0x42, 0x19,
  0xfb, 0x16, 0x0f, 0xf7, 0x19, 0x1e, 0x31, 0x5e, 0x03, 0xea, 0x48, 0xf3,
  0x51, 0xf2, 0x2b, 0x07, 0x12, 0x21, 0x12, 0xfa, 0xbf, 0xfb, 0xf3, 0x25,
  0xe7, 0x63, 0x16, 0x64, 0x68, 0x60, 0x03, 0xe7, 0xbd, 0xc8, 0xe3, 0xd1,
  0xa6, 0x19, 0x02, 0x2d, 0x1e, 0xf4, 0xf1, 0x0a, 0x12, 0x21, 0xdc, 0xc0,
  0xc3, 0xe8, 0x18, 0x24, 0x32, 0xcd, 0x1b, 0xc8, 0x0a, 0xf9, 0x25, 0x4a,
  0x7f, 0x2c, 0x52, 0xe9, 0x20, 0xd0, 0xdd, 0xe8, 0x08, 0xfc, 0xe1, 0x42,
  0x01, 0xf2, 0xf0, 0xf2, 0x25, 0x16, 0xeb, 0x2c, 0xca, 0xb1, 0x0d, 0x30,
  0xb4, 0x09, 0x45, 0x1c, 0xe0, 0xbd, 0xcd, 0xa2, 0x0b, 0x25, 0xc6, 0x20,
  0x39, 0x27, 0xb9, 0x12, 0x46, 0xf3, 0x9f, 0xfe, 0xe4, 0x38, 0x42, 0x31,
  0xef, 0x35, 0x18, 0x35, 0x14, 0xba, 0xb2, 0xa9, 0x9b, 0xfa, 0x32, 0xba,
  0x55, 0x12, 0xcf, 0x40, 0x54, 0x58, 0xf6, 0xd4, 0x22, 0x03, 0xdd, 0x37,
  0xd9, 0xad, 0xc9, 0xd5, 0x40, 0x41, 0xa1, 0xce, 0x34, 0x47, 0x06, 0xda,
  0x1c, 0x02, 0x01, 0x03, 0xe6, 0x30, 0x15, 0xc4, 0xc4, 0xf1, 0x05, 0x17,
  0xfa, 0x7f, 0x2f, 0xd8, 0xe1, 0xa0, 0x23, 0xae, 0xba, 0xcc, 0x3a, 0xf1,
  0x50, 0x3c, 0x04, 0x89, 0x34, 0xf4, 0xe7, 0xdc, 0x32, 0xf6, 0x95, 0xd4,
  0x17, 0xa9, 0xa5, 0xc0, 0x0a, 0x04, 0x8e, 0xc1, 0x94, 0x07, 0xe5, 0xe3,
  0x65, 0x22, 0xd4, 0x01, 0xdb, 0xe1, 0xbd, 0xc2, 0x93, 0xf7, 0x19, 0x9a,
  0xd0, 0xb9, 0x42, 0xbc, 0xb9, 0x03, 0xa8, 0xaf, 0x27, 0x2c, 0xd5, 0x21,
  0xf6, 0xf7, 0xe8, 0x7f, 0x2e, 0x2b, 0x4a, 0x05, 0x60, 0xbb, 0x04, 0xfc,
  0xd7, 0xbd, 0x4c, 0xec, 0xbe, 0x0f, 0x24, 0x54, 0xe6, 0x22, 0xeb, 0xec,
  0xf0, 0x46, 0xcb, 0x19, 0x06, 0x35, 0xe2, 0x49, 0x34, 0x24, 0x3d, 0x66,
  0x1d, 0x79, 0x2d, 0x2e, 0x52, 0x57, 0x0b, 0x58, 0x5a, 0x2f, 0xdd, 0x11,
  0xd3, 0x12, 0xcc, 0xc3, 0xbd, 0xb2, 0x56, 0xf1, 0xc9, 0x52, 0xb5, 0xfc,
  0xec, 0x20, 0x3c, 0xf7, 0x45, 0x2f, 0xc3, 0xd6, 0x2f, 0xab, 0x48, 0xd8,
  0x16, 0x17, 0x3d, 0xdb, 0xed, 0xd2, 0xf2, 0xe4, 0xfa, 0x22, 0xad, 0x5d,
  0x33, 0xa4, 0xd6, 0x26, 0xda, 0xfa, 0x46, 0xf7, 0x24, 0xec, 0xe8, 0x29,
  0xc0, 0xc2, 0x29, 0xed, 0x96, 0x41, 0xd8, 0x4f, 0x1a, 0xd6, 0x67, 0x7f,
  0xa6, 0xd8, 0x54, 0xa5, 0x4d, 0x41, 0x23, 0xea, 0x15, 0x19, 0xf0, 0x2b,
  0xe9, 0x22, 0x1d, 0x35, 0x29, 0xb9, 0xd2, 0xa5, 0xb0, 0x16, 0xcd, 0xdf,
  0xab, 0xf5, 0xe5, 0xae, 0x59, 0x19, 0xa6, 0x3f, 0x20, 0xc4, 0xf0, 0xfe,
  0xad, 0xe1, 0xb6, 0x42, 0x02, 0x35, 0xfd, 0x3c, 0xd3, 0xaf, 0x62, 0xc7,
  0xc0, 0xf1, 0xec, 0x5e, 0x62, 0xd1, 0x34, 0xc6, 0x9c, 0x4b, 0x0b, 0xc8,
  0x3c, 0x65, 0x27, 0x4e, 0x32, 0x5c, 0x5b, 0x02, 0x19, 0x6a, 0xa2, 0x40,
  0x21, 0x4b, 0x33, 0x2a, 0x5b, 0x65, 0xcf, 0x48, 0x24, 0x29, 0x56, 0xdd,
  0x30, 0xe1, 0x1e, 0xdf, 0xa2, 0x3c, 0x10, 0xfd, 0x3f, 0x53, 0xad, 0x34,
  0x09, 0xee, 0xc9, 0x36, 0xe8, 0x04, 0x19, 0xce, 0x39, 0x43, 0x34, 0x3b,
  0x03, 0x5f, 0x10, 0x13, 0x3d, 0x39, 0x64, 0x13, 0xd5, 0x99, 0x81, 0xc1,
  0xb3, 0xee, 0x1d, 0xcf, 0xf2, 0xd9, 0x13, 0xcf, 0x37, 0x1b, 0xc8, 0x17,
  0xc0, 0x11, 0x0b, 0x3d, 0x32, 0xe8, 0xe4, 0x27, 0x47, 0x2b, 0xf2, 0x55,
  0x35, 0x01, 0xc7, 0xce, 0x1a, 0x33, 0x53, 0xf5, 0xe5, 0x1a, 0xe1, 0x5f,
  0xf9, 0xdc, 0x4f, 0x09, 0x52, 0x14, 0xf5, 0xe8, 0xf9, 0x30, 0xc3, 0x1e,
  0x23, 0xf5, 0x39, 0x38, 0x01, 0x2e, 0xd5, 0x60, 0x29, 0xcc, 0xff, 0xe7,
  0xdb, 0xfd, 0x02, 0x98, 0xd7, 0x16, 0x20, 0x1a, 0x1f, 0x14, 0xea, 0xcd,
  0x10, 0x2c, 0x13, 0x23, 0xfa, 0x51, 0xee, 0x2d, 0x40, 0xdc, 0x26, 0x2a,
  0x0e, 0xce, 0x36, 0xee, 0x34, 0xf5, 0xeb, 0x1c, 0xc0, 0xb8, 0xfb, 0x81,
  0x96, 0xb2, 0xf5, 0x29, 0xe3, 0xed, 0x07, 0xee, 0x2d, 0xfe, 0x2d, 0xf9,
  0x17, 0xbe, 0x4e, 0xf0, 0xfa, 0x13, 0x21, 0xc9, 0x2c, 0x29, 0x4c, 0x3c,
  0x20, 0x25, 0x3f, 0x33, 0xeb, 0x38, 0xe6, 0xfd, 0xd1, 0xd9, 0x3b, 0xea,
  0xd9, 0x3a, 0x31, 0xff, 0x02, 0x04, 0xd6, 0x16, 0x1e, 0x0e, 0x43, 0x38,
  0xc8, 0x01, 0x17, 0xf8, 0xc7, 0x17, 0xb8, 0x2b, 0x11, 0x59, 0x46, 0x0c,
  0x24, 0x00, 0x15, 0x42, 0x6b, 0xc7, 0x5b, 0x51, 0x13, 0xbf, 0xad, 0x97,
  0xc3, 0x1a, 0x74, 0xe8, 0x34, 0x87, 0xb6, 0xbb, 0xf1, 0x5c, 0xd7, 0x53,
  0xb8, 0xdf, 0x21, 0x02, 0x1f, 0x4a, 0x19, 0x0a, 0x64, 0x14, 0xd7, 0xfe,
  0x2b, 0xe7, 0xfb, 0xed, 0xda, 0x22, 0x18, 0xe1, 0x0f, 0x4c, 0x20, 0xa1,
  0xeb, 0x56, 0x34, 0x21, 0xfc, 0x16, 0xbb, 0xb8, 0xe6, 0x32, 0xb4, 0x3f,
  0xb5, 0x67, 0x19, 0xd8, 0x37, 0x1a, 0x8c, 0x81, 0x14, 0x2e, 0x88, 0xac,
  0x64, 0xe9, 0x36, 0x38, 0x0f, 0x56, 0x02, 0x54, 0xd6, 0x39, 0x90, 0x38,
  0x3d, 0x9b, 0xf5, 0x18, 0x09, 0xe3, 0xf8, 0x4a, 0x31, 0x41, 0x26, 0x1f,
  0xfd, 0xe6, 0x03, 0x02, 0x23, 0xcc, 0xe5, 0xd7, 0x13, 0x05, 0xcf, 0xcf,
  0x44, 0x01, 0x26, 0xdf, 0xc6, 0xe3, 0xea, 0x0f, 0xdf, 0x13, 0x37, 0x03,
  0xd3, 0xfd, 0xd4, 0xf1, 0x2c, 0x49, 0xed, 0xbb, 0xf4, 0x00, 0x8a, 0x81,
  0x98, 0xb1, 0x25, 0xd4, 0xe5, 0xf5, 0x1a, 0xe7, 0x39, 0xe4, 0x2c, 0x36,
  0x4b, 0xdd, 0xfc, 0xee, 0x17, 0x2b, 0xfe, 0x36, 0xf2, 0xef, 0x0a, 0x2d,
  0x18, 0x2d, 0x18, 0xf5, 0xf1, 0x2c, 0xdf, 0xf4, 0x10, 0xde, 0x38, 0x1d,
  0xf5, 0xec, 0x3d, 0x44, 0x24, 0x18, 0x25, 0x4f, 0xfc, 0x21, 0x2f, 0x32,
  0xe4, 0xfd, 0x23, 0x4b, 0x25, 0x01, 0xda, 0x29, 0xec, 0xdc, 0x52, 0x2c,
  0xbe, 0x81, 0xa1, 0xd7, 0x89, 0x25, 0x3f, 0xcf, 0x3d, 0x17, 0x13, 0x1b,
  0x0b, 0xc8, 0xf1, 0xfd, 0xdc, 0xf7, 0x30, 0x24, 0x33, 0x09, 0x1c, 0x14,
  0x31, 0x33, 0x37, 0x4b, 0x45, 0xc8, 0x41, 0xba, 0xaa, 0xea, 0xcf, 0xbc,
  0xa9, 0xcf, 0xb1, 0x16, 0x47, 0xd5, 0x05, 0xe9, 0xf4, 0x2f, 0x31, 0x40,
  0xf5, 0xd2, 0xeb, 0x0d, 0x08, 0x0b, 0xde, 0x0e, 0x21, 0xba, 0x21, 0xe7,
  0x14, 0x0f, 0x56, 0x09, 0x0f, 0xe1, 0xee, 0x04, 0xd6, 0x57, 0xd7, 0xda,
  0xc6, 0x52, 0x46, 0xfd, 0xf4, 0x1d, 0x31, 0xea, 0x0d, 0xf0, 0x1b, 0x3f,
  0x39, 0x55, 0xc3, 0x33, 0x2f, 0x36, 0x9d, 0xe0, 0xe9, 0xfc, 0x27, 0x23,
  0x20, 0x4f, 0x54, 0x7d, 0x41, 0xbf, 0x53, 0x46, 0x33, 0x24, 0xbe, 0x45,
  0x0e, 0x95, 0x36, 0x1a, 0x90, 0xf0, 0xa0, 0xbb, 0x4b, 0x2f, 0x41, 0xc0,
  0xbc, 0x3d, 0xeb, 0xff, 0x4e, 0xf9, 0x03, 0x5e, 0x33, 0x5d, 0x5f, 0x0a,
  0xe7, 0x19, 0xe7, 0x40, 0xd2, 0xd8, 0xa7, 0x0d, 0xf6, 0x8f, 0x07, 0x8c,
  0x1b, 0xff, 0xe9, 0xe6, 0xaf, 0x81, 0xda, 0x3b, 0xd6, 0xeb, 0xfb, 0x27,
  0xcf, 0x32, 0x3d, 0x99, 0xee, 0xc1, 0x00, 0x2f, 0x2b, 0xf7, 0x1e, 0x01,
  0x4a, 0xdc, 0x62, 0x52, 0x50, 0xdb, 0x9e, 0xa8, 0x0f, 0x41, 0x4e, 0x51,
  0x27, 0x17, 0x55, 0x33, 0x57, 0x8c, 0x37, 0xa8, 0x21, 0x4d, 0xac, 0x0a,
  0x4c, 0x4c, 0x1c, 0xcf, 0x0c, 0x52, 0x5f, 0xaf, 0xd6, 0xab, 0xe0, 0xf8,
  0xf2, 0x60, 0x52, 0xd4, 0x49, 0xaf, 0x12, 0x2e, 0xe3, 0x43, 0x2d, 0x38,
  0x47, 0xf9, 0xee, 0xc2, 0x1b, 0x90, 0x45, 0xca, 0x06, 0x13, 0xe1, 0x61,
  0x54, 0x2c, 0x70, 0x0b, 0xfe, 0xfa, 0x66, 0x34, 0x92, 0xe8, 0xbb, 0xce,
  0x3e, 0x32, 0x2c, 0x81, 0x56, 0xa5, 0x9a, 0xed, 0x1a, 0x2f, 0xd3, 0xd2,
  0xd3, 0x1a, 0xa7, 0xd8, 0xc3, 0x02, 0x6a, 0x2a, 0x6c, 0x0b, 0xc1, 0xef,
  0xc0, 0xd8, 0xc0, 0xf5, 0xfd, 0x55, 0x8d, 0xba, 0x40, 0xee, 0xfa, 0xd6,
  0xeb, 0x99, 0x46, 0x49, 0x18, 0x15, 0xfe, 0xf0, 0x03, 0x02, 0x2f, 0x30,
  0xf1, 0xe3, 0xcd, 0x60, 0x5e, 0xff, 0x42, 0xf7, 0x4b, 0x2f, 0x2d, 0xc2,
  0x27, 0xe9, 0x43, 0xdc, 0xfb, 0x21, 0x01, 0xf1, 0xd3, 0xca, 0x29, 0xfa,
  0x33, 0xf2, 0xdb, 0xbb, 0xdb, 0xf4, 0xb6, 0xb5, 0x1e, 0xbe, 0x7e, 0x65,
  0x28, 0x7f, 0x6e, 0x46, 0xc6, 0xad, 0x1e, 0xf9, 0x41, 0x2f, 0xbc, 0x3f,
  0xdf, 0x4a, 0x0e, 0x15, 0xf8, 0x38, 0xe4, 0x36, 0xbd, 0xd0, 0x23, 0x04,
  0x4e, 0xdf, 0x30, 0x54, 0x2b, 0xc3, 0x11, 0xc6, 0x04, 0x1b, 0x1c, 0xdd,
  0x40, 0x1f, 0x29, 0x32, 0xcc, 0x42, 0x05, 0xe7, 0x40, 0xa3, 0xa2, 0x01,
  0x3b, 0xb4, 0x3c, 0x0e, 0x6a, 0x03, 0xc0, 0x2f, 0xcc, 0xdc, 0xbb, 0xad,
  0x34, 0x48, 0xe0, 0x63, 0xee, 0xf4, 0x5b, 0x9e, 0x1e, 0x9f, 0xae, 0xf8,
  0x89, 0xf0, 0xf1, 0xb3, 0x93, 0x38, 0xf7, 0x9e, 0x55, 0x0d, 0xd0, 0xb1,
  0xf4, 0xd6, 0x98, 0xd9, 0x35, 0x61, 0xce, 0x3e, 0x65, 0x4c, 0x1f, 0x50,
  0x45, 0xee, 0x15, 0xf3, 0x47, 0x96, 0x29, 0xb2, 0x6b, 0xd0, 0x6a, 0xbc,
  0x56, 0x57, 0x10, 0xc2, 0x17, 0xf8, 0x41, 0x98, 0x81, 0x2a, 0x9d, 0x25,
  0xc4, 0x50, 0xc3, 0x29, 0x63, 0xfa, 0x79, 0xd8, 0xbb, 0x24, 0xc5, 0x96,
  0xd5, 0x60, 0x4b, 0xb8, 0xbd, 0xa4, 0xa4, 0xef, 0x31, 0xa7, 0x57, 0x5c,
  0xad, 0xb3, 0x21, 0x39, 0x22, 0x32, 0xe2, 0x4e, 0xf1, 0xd8, 0xeb, 0xe4,
  0xb7, 0xa5, 0xd8, 0xa4, 0xef, 0x16, 0xd5, 0x07, 0x3c, 0x0a, 0x34, 0xd4,
  0x0a, 0x0f, 0xed, 0xc0, 0xf6, 0xf9, 0x0e, 0xe0, 0x05, 0x12, 0xe5, 0x42,
  0xd9, 0x23, 0xe8, 0x5d, 0x0a, 0x37, 0xde, 0xf1, 0xae, 0xf2, 0x93, 0x81,
  0xee, 0xa9, 0xd0, 0x2c, 0xe9, 0xc8, 0x32, 0x13, 0x23, 0xd0, 0x19, 0x35,
  0x38, 0x15, 0xd9, 0x24, 0x0f, 0xf6, 0xee, 0x2a, 0xd2, 0x01, 0x2d, 0x43,
  0xf4, 0x37, 0xcc, 0x46, 0x18, 0x0b, 0x2e, 0x2d, 0x09, 0x07, 0x18, 0x2d,
  0xf5, 0x01, 0xf6, 0x15, 0x2d, 0xe3, 0xfd, 0x20, 0xe6, 0x1b, 0x1c, 0xe1,
  0xe3, 0x30, 0xd9, 0xe3, 0x5b, 0x66, 0x13, 0xf0, 0xc0, 0x46, 0xe2, 0x14,
  0x56, 0x06, 0x19, 0xf3, 0xc6, 0xef, 0x1e, 0x53, 0xd2, 0x8e, 0xa3, 0x07,
  0x53, 0xc5, 0xa4, 0x13, 0xe9, 0x41, 0x0f, 0x61, 0x0a, 0xd3, 0x63, 0x29,
  0x5a, 0x4f, 0x14, 0x72, 0x7f, 0xbb, 0x61, 0xbf, 0xab, 0x50, 0xba, 0xc1,
  0xc8, 0x64, 0xca, 0x01, 0x1d, 0x6d, 0x64, 0x36, 0xd3, 0x14, 0x72, 0x10,
  0xa8, 0x0c, 0xf9, 0xe3, 0xf0, 0x3e, 0xa9, 0xee, 0xf9, 0xac, 0x6c, 0xe5,
  0x4d, 0xdf, 0xa6, 0xe8, 0x99, 0x0b, 0xff, 0xf4, 0x36, 0x22, 0xa6, 0x46,
  0x49, 0x5f, 0xc7, 0x5a, 0x36, 0xa8, 0x1b, 0xc9, 0x15, 0xc3, 0x31, 0xd0,
  0x5f, 0x3b, 0x18, 0x50, 0xfd, 0xfc, 0xde, 0xe4, 0xf7, 0xff, 0x57, 0xac,
  0xcd, 0xb4, 0xb7, 0x0d, 0xed, 0xde, 0xd7, 0xef, 0xd6, 0xf9, 0xc0, 0xed,
  0x14, 0x38, 0xdb, 0xf1, 0xd3, 0xe3, 0x0f, 0x1f, 0x2a, 0x25, 0x29, 0xeb,
  0x0b, 0xfd, 0xcd, 0x18, 0x38, 0xff, 0x24, 0x20, 0xc8, 0x9a, 0xbe, 0x81,
  0x9e, 0xb6, 0xef, 0xc4, 0xde, 0x26, 0x34, 0xd1, 0x46, 0x09, 0xd5, 0xe9,
  0x35, 0x4c, 0x1f, 0x2b, 0xd6, 0x4a, 0x3f, 0xe5, 0xd3, 0x21, 0xe2, 0xe3,
  0x1f, 0xe0, 0x2c, 0xc3, 0x3f, 0x3c, 0xd1, 0x44, 0xf7, 0xf5, 0x22, 0xe1,
  0x0d, 0x15, 0x44, 0x14, 0x39, 0x3e, 0x02, 0xee, 0x2f, 0xf9, 0x3b, 0xd5,
  0x28, 0xf6, 0xdd, 0x4e, 0x07, 0x06, 0x3e, 0x50, 0x57, 0xf5, 0xe6, 0xb0,
  0x0c, 0xf9, 0xad, 0xe4, 0x2c, 0x58, 0x0f, 0x0e, 0x49, 0xb4, 0x42, 0x42,
  0x48, 0xc2, 0xec, 0xb5, 0x8c, 0x56, 0xb4, 0xc5, 0xee, 0x48, 0x6b, 0xab,
  0xc6, 0x30, 0x0f, 0x5b, 0x52, 0x51, 0x64, 0x13, 0xb4, 0x04, 0xfc, 0x12,
  0xc8, 0xf0, 0x5b, 0x1a, 0x32, 0xd4, 0xcd, 0x0e, 0xe4, 0xe6, 0xc4, 0x05,
  0xab, 0xe0, 0x29, 0x44, 0x2e, 0x05, 0xc3, 0xa5, 0x31, 0xb2, 0x53, 0x66,
  0x7f, 0xe7, 0xcb, 0x0b, 0xf2, 0x51, 0x38, 0x10, 0xf2, 0x3a, 0x4d, 0x32,
  0x19, 0x29, 0xc6, 0x39, 0x4c, 0xda, 0xb2, 0xd9, 0x51, 0x3a, 0x39, 0x20,
  0x1f, 0xd3, 0x44, 0x53, 0x03, 0x3a, 0x1a, 0xbc, 0x1e, 0xad, 0xe7, 0x22,
  0x73, 0xe3, 0xd3, 0xbc, 0xce, 0xc9, 0x16, 0xfc, 0xf7, 0x05, 0x30, 0xae,
  0xc7, 0x35, 0x3b, 0x26, 0x2e, 0xad, 0xa9, 0x8c, 0xf0, 0xa3, 0xac, 0xdd,
  0x34, 0xda, 0xe8, 0x0c, 0x3e, 0xe7, 0x5a, 0x5c, 0x7f, 0x65, 0xcd, 0xcb,
  0x28, 0xd8, 0xca, 0x34, 0xc2, 0xda, 0xb5, 0xe1, 0xc6, 0xc9, 0xb1, 0xa9,
  0x0d, 0x02, 0xbb, 0x1f, 0xb4, 0xa8, 0xa9, 0x39, 0x05, 0xdf, 0x28, 0xc5,
  0xc4, 0x0e, 0xab, 0xaf, 0x44, 0x56, 0xc7, 0xe9, 0xf5, 0x4c, 0xf6, 0x22,
  0xd7, 0xa1, 0xb5, 0xf8, 0xbb, 0x31, 0xc4, 0x40, 0x2e, 0xf7, 0xd4, 0xc5,
  0x19, 0x9b, 0xde, 0xa8, 0x9c, 0xf1, 0xf0, 0xf0, 0x00, 0xbc, 0xaf, 0x71,
  0xc7, 0x5f, 0xba, 0x18, 0xd5, 0xf4, 0x3c, 0xb4, 0x3c, 0xfa, 0xa8, 0xa9,
  0xd1, 0xa6, 0xa1, 0xce, 0x59, 0xb9, 0x0a, 0x9e, 0xa9, 0xe6, 0xa8, 0xde,
  0xef, 0x41, 0x2f, 0x85, 0x23, 0xb0, 0x4f, 0x11, 0x01, 0xcb, 0xcd, 0xe4,
  0x7f, 0xb2, 0x1b, 0xf9, 0x90, 0x17, 0x82, 0xed, 0x90, 0x24, 0x54, 0xef,
  0x54, 0xd4, 0xff, 0xbc, 0xdb, 0x96, 0xcd, 0xbb, 0x0d, 0x33, 0xa8, 0x5f,
  0xa8, 0x86, 0x59, 0x35, 0xa4, 0x21, 0xd9, 0xf4, 0xf8, 0xca, 0x38, 0xdc,
  0x1a, 0x3e, 0x24, 0xc9, 0x85, 0x1e, 0xd4, 0xdc, 0x55, 0x51, 0xbe, 0x60,
  0xac, 0xa8, 0x0d, 0x3d, 0x1a, 0xe4, 0xb2, 0x1d, 0xd5, 0xc9, 0xe3, 0xcb,
  0x56, 0x58, 0x44, 0x44, 0x2a, 0xe6, 0xf1, 0xe5, 0xfb, 0xd4, 0x09, 0xe4,
  0xfe, 0xfc, 0xd5, 0xf7, 0x2b, 0x01, 0x29, 0x15, 0xe2, 0x03, 0x0d, 0x1d,
  0xcf, 0xd2, 0x30, 0x25, 0xe1, 0x18, 0xf2, 0x33, 0x7f, 0x76, 0x4d, 0x1d,
  0xb8, 0xcf, 0x17, 0xe6, 0x19, 0xfd, 0x35, 0xb3, 0xfd, 0xc1, 0x13, 0x25,
  0xc7, 0xcb, 0xf9, 0x32, 0x35, 0x18, 0xc7, 0x22, 0xa2, 0x17, 0xd7, 0xb1,
  0x05, 0xcf, 0x0a, 0xd9, 0x02, 0x27, 0x2b, 0x36, 0x29, 0xde, 0x32, 0x26,
  0x05, 0xfa, 0xed, 0xfe, 0xfa, 0xde, 0xf7, 0x0d, 0x3d, 0x01, 0x33, 0x24,
  0xfd, 0xa0, 0x4e, 0x33, 0x11, 0xc4, 0xe3, 0xf6, 0x34, 0x1a, 0x33, 0x66,
  0x23, 0xe5, 0x22, 0x76, 0x77, 0x0f, 0x3b, 0x09, 0x10, 0x3b, 0xf0, 0x04,
  0xba, 0xde, 0x3f, 0x70, 0x31, 0x3c, 0x0b, 0x31, 0x0a, 0xf4, 0x11, 0x10,
  0xad, 0xf2, 0x01, 0xb1, 0xbe, 0xc4, 0xbc, 0x24, 0xea, 0x61, 0x27, 0x7f,
  0x69, 0x68, 0xc2, 0x41, 0xae, 0x52, 0xcc, 0x56, 0xfd, 0xb4, 0xd5, 0x41,
  0x9f, 0x08, 0xeb, 0xda, 0xc9, 0x33, 0xd3, 0xe4, 0xb2, 0x1b, 0xf7, 0x1d,
  0xb5, 0x27, 0x28, 0x08, 0xfe, 0x10, 0x50, 0xfe, 0x2a, 0x0e, 0xee, 0xf8,
  0xd9, 0x2e, 0xb6, 0xbf, 0xf2, 0xd8, 0xd9, 0xd4, 0x30, 0xf9, 0xb0, 0xe2,
  0x0d, 0x1f, 0x2c, 0xd9, 0xdb, 0xe9, 0x24, 0x59, 0x0c, 0x49, 0xf0, 0x23,
  0xc0, 0xa3, 0xeb, 0xb7, 0x95, 0x16, 0x32, 0xe4, 0xe0, 0xf6, 0xda, 0xd5,
  0x4a, 0x41, 0xf6, 0x29, 0x3c, 0x1b, 0x43, 0x3b, 0x31, 0x2e, 0xaf, 0xd8,
  0x40, 0x0f, 0xd8, 0x61, 0x09, 0x3e, 0x58, 0xe9, 0xf7, 0xf1, 0x81, 0x86,
  0x12, 0xad, 0xfd, 0xfd, 0x4e, 0xda, 0xca, 0xce, 0xc4, 0x3e, 0xe0, 0xc9,
  0x4b, 0x05, 0x19, 0x41, 0x0e, 0xca, 0x44, 0x2e, 0xcf, 0xd4, 0xe0, 0x28,
  0xdd, 0x11, 0x18, 0xf0, 0x0f, 0xe6, 0xda, 0x42, 0xf8, 0xf0, 0xfc, 0x38,
  0x3b, 0xd0, 0xd0, 0xd6, 0x1a, 0x21, 0x23, 0xfb, 0xc7, 0x36, 0xc9, 0x1b,
  0xca, 0x06, 0x48, 0x44, 0xca, 0x8e, 0x41, 0xe4, 0x26, 0x3a, 0xfa, 0x5a,
  0x54, 0x03, 0x7f, 0xd5, 0x40, 0x5e, 0xfd, 0x0f, 0x88, 0x88, 0xc8, 0x16,
  0xf6, 0xb3, 0x00, 0xd0, 0x34, 0xd0, 0x4f, 0xa9, 0x11, 0xd0, 0xb1, 0xf0,
  0x06, 0x36, 0x28, 0x4a, 0xfe, 0xce, 0xbd, 0x59, 0x7c, 0x11, 0x1d, 0x5d,
  0xf6, 0xff, 0xe1, 0xbc, 0x46, 0xdf, 0xe3, 0x39, 0xb1, 0x1f, 0x3d, 0xe0,
  0x13, 0xb6, 0xdd, 0x37, 0x07, 0xe4, 0xd6, 0xc2, 0xc8, 0xe3, 0xe6, 0xca,
  0xec, 0x12, 0x90, 0xe4, 0x30, 0xbc, 0x0f, 0xa4, 0x1c, 0x19, 0x38, 0x31,
  0xee, 0xd9, 0xf9, 0xd9, 0x0a, 0x1e, 0xbf, 0x37, 0xed, 0x14, 0x97, 0xc1,
  0xc3, 0x14, 0xb8, 0xce, 0x4c, 0xdf, 0x41, 0x56, 0xee, 0x2a, 0x31, 0xe8,
  0x71, 0x5a, 0x58, 0x53, 0xfc, 0xc1, 0x1d, 0x48, 0x03, 0x0d, 0x33, 0xf7,
  0x30, 0xf0, 0x43, 0x1b, 0xc2, 0x47, 0x9d, 0xb9, 0x3c, 0x03, 0xf1, 0xdf,
  0xae, 0xbc, 0x39, 0xb4, 0xac, 0x66, 0x32, 0x49, 0x7f, 0x46, 0x64, 0xec,
  0x31, 0x0a, 0x8f, 0xd8, 0xfa, 0xe5, 0xd2, 0xca, 0xbf, 0x4b, 0x3f, 0x4c,
  0x53, 0x0d, 0x69, 0x2a, 0x15, 0x02, 0x2c, 0x2b, 0xc8, 0x3a, 0x0e, 0x02,
  0x53, 0x25, 0xc2, 0xd7, 0xb5, 0xd9, 0x0c, 0x45, 0xf0, 0x51, 0xd2, 0xa0,
  0xd3, 0xc0, 0x5f, 0xad, 0x58, 0x5b, 0x00, 0xf1, 0xc0, 0xe6, 0x71, 0x2b,
  0xf3, 0x04, 0xe1, 0xc3, 0x01, 0x09, 0x23, 0xf1, 0xf4, 0x1b, 0x34, 0xd1,
  0xdf, 0xa8, 0xc0, 0xa8, 0xba, 0xdb, 0x22, 0xf2, 0xff, 0x1e, 0x12, 0xfa,
  0x1f, 0x1d, 0xe1, 0x04, 0xe6, 0xeb, 0x00, 0xf9, 0x02, 0x1e, 0x0a, 0xf2,
  0x02, 0x12, 0x3b, 0x36, 0x24, 0xe4, 0x15, 0x16, 0x9e, 0x9a, 0x81, 0x9e,
  0xee, 0xc5, 0xd5, 0x00, 0x01, 0x00, 0x20, 0x2f, 0x1e, 0x0a, 0xde, 0x0c,
  0x22, 0x19, 0x28, 0x20, 0x34, 0x30, 0x35, 0xec, 0xd9, 0xd8, 0xf6, 0x32,
  0x2b, 0x10, 0xfd, 0xf1, 0x0e, 0xf8, 0x29, 0xf7, 0x13, 0x1f, 0xe9, 0xdc,
  0x26, 0x25, 0x15, 0xea, 0x13, 0x0f, 0x2d, 0x3c, 0x1f, 0x3b, 0x0b, 0xe3,
  0xfe, 0x1b, 0xfd, 0xe7, 0xee, 0x07, 0x03, 0xc4, 0x33, 0xee, 0xcb, 0x2b,
  0xee, 0xcb, 0x20, 0xfe, 0x50, 0xba, 0x24, 0x1b, 0x2c, 0x31, 0x44, 0xb3,
  0xe9, 0x4b, 0xbd, 0x39, 0x4b, 0xea, 0x3d, 0xd2, 0xff, 0x28, 0xc9, 0xed,
  0x33, 0x49, 0x90, 0xb1, 0xa8, 0x28, 0xc1, 0x10, 0x06, 0x3f, 0xe5, 0x6e,
  0x0d, 0x7f, 0xfa, 0x2b, 0x62, 0xe7, 0xff, 0xed, 0x28, 0x32, 0xc9, 0x0c,
  0xd1, 0xa5, 0xae, 0x33, 0xb9, 0x1d, 0x18, 0x2f, 0xb1, 0xd0, 0xaa, 0x16,
  0x17, 0x19, 0xdf, 0x2e, 0xf2, 0x0b, 0xd8, 0x16, 0xc2, 0xc8, 0x44, 0x29,
  0xc4, 0xf8, 0x13, 0x4b, 0xa3, 0xb8, 0x2b, 0x06, 0xd3, 0xd8, 0x0e, 0x3c,
  0x26, 0xbf, 0xe4, 0xf8, 0x92, 0xbd, 0x3c, 0xab, 0x15, 0xf5, 0x08, 0xe1,
  0x26, 0x20, 0x2e, 0x3b, 0x61, 0x0b, 0xff, 0x9a, 0x68, 0x4c, 0x1d, 0xe9,
  0x34, 0x56, 0x3e, 0x39, 0xce, 0x06, 0xc3, 0xa6, 0x4f, 0x21, 0xb8, 0x27,
  0x60, 0xb1, 0x31, 0x44, 0x17, 0x0f, 0xcf, 0x1e, 0x0b, 0x2b, 0x4c, 0x1c,
  0xd2, 0x1c, 0x60, 0xae, 0xa3, 0x13, 0xd5, 0xf0, 0xa5, 0xb0, 0x22, 0xf4,
  0x29, 0x57, 0xf8, 0x5b, 0x40, 0x1a, 0xf7, 0x0d, 0x15, 0x45, 0x96, 0x4f,
  0x1c, 0x81, 0xf3, 0x29, 0xff, 0x15, 0xe7, 0x3a, 0x2b, 0x28, 0xc4, 0x2e,
  0xe6, 0xb7, 0xd6, 0xc3, 0x10, 0xe5, 0x04, 0x60, 0x72, 0x8d, 0xfc, 0xd1,
  0x51, 0xd3, 0x3e, 0xcf, 0xc2, 0x4d, 0x8c, 0xfa, 0x29, 0x34, 0xb1, 0xef,
  0x30, 0x47, 0x18, 0x24, 0x5b, 0x4d, 0xc3, 0x31, 0xeb, 0xe3, 0x16, 0x39,
  0xa2, 0x12, 0xd7, 0x48, 0xa3, 0x2e, 0x4f, 0x5d, 0x1e, 0x43, 0xa2, 0x1b,
  0x36, 0x05, 0xed, 0xf4, 0xfe, 0x9b, 0xc9, 0xba, 0x36, 0xde, 0x59, 0x64,
  0x7f, 0x31, 0x30, 0x6b, 0x10, 0x0c, 0xfa, 0x35, 0x3f, 0x53, 0x8e, 0x1c,
  0xbd, 0xd4, 0xe4, 0xea, 0x0b, 0x28, 0xa1, 0x2a, 0xbd, 0xe1, 0x94, 0x16,
  0x86, 0x23, 0x95, 0x13, 0x4a, 0x86, 0xfe, 0x9e, 0xdb, 0x2d, 0x3a, 0x0f,
  0x3f, 0xe5, 0x08, 0xfd, 0xa0, 0x3c, 0xc0, 0xd8, 0xd8, 0x29, 0x5d, 0xbf,
  0xa2, 0x55, 0xfc, 0x06, 0x45, 0xa2, 0xb4, 0x4e, 0x29, 0x55, 0x50, 0xef,
  0xf6, 0x75, 0x6f, 0x19, 0xdb, 0xf9, 0xd6, 0xe4, 0xb6, 0xc8, 0xb3, 0xd7,
  0xfd, 0x12, 0x3e, 0xa8, 0xb1, 0xae, 0x99, 0x06, 0xc3, 0xdd, 0x9b, 0x81,
  0x99, 0x4b, 0xbd, 0xdd, 0xe4, 0xab, 0x99, 0xab, 0xc9, 0x0b, 0xf8, 0x34,
  0xad, 0x2f, 0x96, 0x4d, 0xf7, 0x3a, 0x1e, 0x26, 0xe2, 0x37, 0xd0, 0xae,
  0xf1, 0x2d, 0x45, 0xfb, 0x6e, 0x20, 0x0d, 0xe3, 0xcf, 0xa6, 0xb0, 0xa5,
  0x00, 0x3f, 0xbc, 0x30, 0x09, 0xbf, 0x9f, 0x9f, 0x68, 0x2e, 0x82, 0x19,
  0xa5, 0x9b, 0xcf, 0x34, 0x26, 0xc3, 0x55, 0xbf, 0x22, 0xb2, 0xbe, 0xaa,
  0xc8, 0xf0, 0xf6, 0xdb, 0xfa, 0xaf, 0xd8, 0xd8, 0xbb, 0x42, 0xc4, 0x02,
  0xf0, 0x4b, 0x2b, 0x3b, 0x4f, 0x4a, 0xe5, 0x35, 0x3f, 0x41, 0x17, 0x2e,
  0x27, 0x44, 0x2d, 0x02, 0xda, 0xcc, 0x32, 0xf3, 0x35, 0x34, 0xcb, 0xf8,
  0xf4, 0x0c, 0xfb, 0xed, 0xd3, 0x05, 0x33, 0xc7, 0xd5, 0x37, 0x7c, 0x7f,
  0x7c, 0x5b, 0x3b, 0x52, 0x22, 0x1a, 0xeb, 0xfe, 0xef, 0xe3, 0x34, 0x3d,
  0x1b, 0x1c, 0xd8, 0xc5, 0x2d, 0xbb, 0x15, 0xed, 0x24, 0xe3, 0x1f, 0x1f,
  0x13, 0x09, 0x1c, 0x0b, 0xf5, 0x39, 0xdb, 0xe1, 0xe6, 0xe0, 0x28, 0xd8,
  0xea, 0x17, 0xcb, 0xde, 0x27, 0xfd, 0xc7, 0x1e, 0xef, 0xf9, 0xea, 0x01,
  0xc4, 0xeb, 0x3a, 0xd4, 0x1f, 0xaa, 0xbc, 0xfb, 0x65, 0x40, 0x0c, 0xc0,
  0x46, 0x9b, 0xc1, 0xc2, 0x11, 0x11, 0xf2, 0x56, 0xa1, 0xb1, 0x2a, 0x70,
  0x7d, 0xd8, 0xdc, 0x04, 0x6b, 0xef, 0x12, 0x23, 0xf0, 0xfb, 0x42, 0x04,
  0x27, 0xb3, 0xab, 0xe5, 0xcb, 0x5b, 0x35, 0xcd, 0x3c, 0x3c, 0x0c, 0x28,
  0x75, 0x95, 0xa3, 0xf0, 0xac, 0xda, 0x69, 0x3c, 0x87, 0x5c, 0x43, 0x53,
  0x08, 0x66, 0x96, 0xb5, 0x35, 0x60, 0xf9, 0xd2, 0x70, 0x63, 0x2a, 0xc0,
  0x22, 0x05, 0x81, 0xae, 0xa9, 0x17, 0xf9, 0xaa, 0xd8, 0x6a, 0x48, 0x43,
  0x72, 0x41, 0x86, 0x54, 0xd9, 0xb1, 0xfa, 0x00, 0x59, 0x55, 0x4a, 0xfc,
  0xb0, 0xf9, 0x66, 0x90, 0xfe, 0xf5, 0xf5, 0x49, 0x13, 0xef, 0x14, 0xd7,
  0xeb, 0x82, 0x03, 0x81, 0xab, 0x16, 0x42, 0x51, 0xed, 0x22, 0x4e, 0xbd,
  0xb2, 0xc0, 0xc8, 0xbd, 0xd8, 0x0e, 0x0d, 0x1d, 0x46, 0x08, 0xee, 0x2b,
  0x53, 0x1c, 0x26, 0x4c, 0xfa, 0x03, 0x63, 0x04, 0x1a, 0x01, 0xf9, 0x90,
  0xa5, 0x01, 0xbe, 0xde, 0xc3, 0xe0, 0x06, 0xe7, 0x33, 0x21, 0x4f, 0x3c,
  0xea, 0x1c, 0x44, 0xe6, 0xdd, 0xd1, 0xe1, 0x45, 0x4a, 0x49, 0x0e, 0x10,
  0x3d, 0x2d, 0xef, 0x09, 0x43, 0x3e, 0x07, 0x0f, 0xca, 0x39, 0xc6, 0x08,
  0x5b, 0xdf, 0x00, 0xe5, 0x3f, 0x04, 0x57, 0x18, 0xdf, 0x23, 0xad, 0xbd,
  0x49, 0xca, 0x57, 0xca, 0x00, 0xba, 0xff, 0x0e, 0x0f, 0x0c, 0xcb, 0x4e,
  0x51, 0x12, 0x18, 0x07, 0xf4, 0xd5, 0xcd, 0xc2, 0xd1, 0xf8, 0xff, 0x1c,
  0x16, 0x2d, 0x28, 0xcf, 0xd0, 0xfb, 0x13, 0x31, 0x43, 0x1a, 0xbc, 0x04,
  0xd2, 0xcc, 0x20, 0xf7, 0xdd, 0xcf, 0xcc, 0x33, 0x53, 0x7f, 0x0e, 0xe8,
  0xdf, 0x30, 0xd8, 0x07, 0xd2, 0xb8, 0xa4, 0x21, 0x2e, 0xa3, 0xea, 0xbe,
  0x2b, 0x24, 0x2d, 0x0c, 0xcf, 0x02, 0x00, 0xf2, 0xf0, 0x12, 0xcc, 0xe5,
  0x1f, 0x05, 0x1a, 0xde, 0xd5, 0xcf, 0x31, 0x0c, 0x4a, 0x09, 0xd5, 0x03,
  0xb9, 0x21, 0x29, 0xe9, 0xda, 0x20, 0xf6, 0xe9, 0x1c, 0x26, 0x4e, 0xe9,
  0xe7, 0x27, 0x24, 0x2c, 0xdb, 0x12, 0x65, 0x1d, 0xb4, 0xa3, 0x96, 0xc6,
  0xea, 0xd9, 0x13, 0xd9, 0x45, 0x0d, 0x24, 0x10, 0x47, 0xea, 0x15, 0xd7,
  0xa7, 0x06, 0xfb, 0xe0, 0x49, 0xca, 0xcc, 0x22, 0x19, 0xa3, 0x10, 0xc9,
  0x67, 0x98, 0x51, 0xa8, 0xc2, 0xc7, 0xf4, 0xe6, 0xc8, 0x54, 0x49, 0x2a,
  0x7f, 0x38, 0x16, 0x12, 0x16, 0xcb, 0xa5, 0xa0, 0xf2, 0xca, 0x3c, 0x2b,
  0x38, 0x38, 0xe8, 0x00, 0xdb, 0xcf, 0x0b, 0xe8, 0x01, 0xf3, 0xd2, 0x31,
  0xb6, 0x4e, 0x14, 0xf5, 0x2d, 0xc9, 0x1b, 0x25, 0x19, 0x1d, 0xb9, 0xa8,
  0xc3, 0xcd, 0x2d, 0x36, 0xfa, 0xa2, 0xf1, 0x15, 0xac, 0x3e, 0x20, 0xde,
  0xc2, 0xf2, 0xf4, 0xa7, 0x3e, 0x08, 0xc5, 0xd2, 0xd7, 0xcc, 0x33, 0xe2,
  0xf0, 0x3d, 0x29, 0x12, 0xcb, 0xf9, 0x28, 0xd6, 0xf2, 0xcc, 0xed, 0x1b,
  0xdf, 0xf3, 0x1b, 0x51, 0x04, 0x21, 0xce, 0x2f, 0xea, 0xb2, 0xed, 0x3e,
  0x2b, 0x44, 0xca, 0xb5, 0xf7, 0xf8, 0x06, 0x0c, 0x1c, 0x7f, 0x38, 0xeb,
  0xd2, 0xe5, 0xe1, 0xcb, 0x15, 0xd5, 0x1f, 0xf0, 0xb6, 0xe3, 0xf4, 0x47,
  0x08, 0x0a, 0xee, 0xdf, 0xfc, 0xed, 0xce, 0xd3, 0x19, 0xcb, 0xc6, 0xe7,
  0xbe, 0x2f, 0x1e, 0x3a, 0x17, 0x30, 0x24, 0xc8, 0x14, 0x3b, 0xe3, 0x0d,
  0x12, 0xcb, 0x23, 0x12, 0xba, 0x0e, 0x18, 0xea, 0x35, 0x17, 0xf3, 0xf9,
  0x0b, 0xcd, 0x3b, 0xfa, 0x4e, 0x93, 0x58, 0xf9, 0x97, 0xdb, 0x49, 0xc4,
  0x54, 0x1c, 0x17, 0xdd, 0x5a, 0x38, 0xa9, 0x36, 0xea, 0xb7, 0xe5, 0x2a,
  0x53, 0x2f, 0x27, 0x47, 0x2d, 0x10, 0x21, 0x23, 0xf5, 0x5c, 0x0d, 0xfa,
  0x14, 0xa1, 0xf8, 0xbf, 0xe6, 0x9b, 0xfc, 0xb7, 0x7f, 0xe3, 0xec, 0x0a,
  0x3c, 0x1b, 0x17, 0xfc, 0xac, 0x32, 0xe6, 0xe0, 0xdf, 0xf9, 0x22, 0x31,
  0xdd, 0xfc, 0x3c, 0xf7, 0x9f, 0x25, 0xee, 0xdf, 0x0c, 0x38, 0x32, 0xcd,
  0xec, 0x1d, 0xa2, 0xfa, 0xe6, 0xd8, 0x45, 0x4c, 0xe7, 0xca, 0x09, 0x15,
  0xf6, 0x47, 0x55, 0x47, 0x51, 0xbe, 0xae, 0x97, 0x06, 0x3c, 0xf0, 0x0c,
  0x2d, 0x3e, 0x9f, 0x48, 0x42, 0x10, 0xd9, 0x50, 0x17, 0xfe, 0xf6, 0xf0,
  0xf4, 0xa6, 0x9a, 0xb7, 0xbc, 0x9e, 0x25, 0x20, 0x26, 0x27, 0xd2, 0x00,
  0xe6, 0x19, 0xfc, 0x03, 0x07, 0x0b, 0x38, 0x25, 0x49, 0xd6, 0xd6, 0xeb,
  0xd2, 0x16, 0x27, 0x31, 0xdf, 0x29, 0x1e, 0x14, 0xbb, 0x81, 0xc7, 0x81,
  0xe5, 0xeb, 0x0d, 0x17, 0xf3, 0x2e, 0x12, 0x0e, 0xd5, 0x13, 0x06, 0x19,
  0xef, 0xf0, 0x31, 0xcc, 0xf7, 0x2e, 0x08, 0xfa, 0xf0, 0x31, 0x36, 0x04,
  0x30, 0x04, 0x0b, 0x21, 0x11, 0x23, 0x03, 0xe5, 0xd4, 0xfe, 0x2f, 0x2b,
  0x02, 0xfa, 0xe1, 0xdf, 0x15, 0x23, 0xfa, 0x33, 0x14, 0xfb, 0x1a, 0x1f,
  0x31, 0x29, 0x1f, 0x12, 0xf6, 0x29, 0xb4, 0xce, 0xee, 0x15, 0xf7, 0xcf,
  0x1b, 0xe8, 0x47, 0x6b, 0x4d, 0x2c, 0x05, 0x1a, 0xdf, 0x0e, 0x32, 0xf1,
  0x1c, 0x20, 0x06, 0x49, 0x2b, 0x0f, 0xf8, 0x06, 0xcb, 0xc3, 0x2d, 0x10,
  0xca, 0xe8, 0xf8, 0x0a, 0xd2, 0x00, 0x12, 0xc9, 0x19, 0x56, 0x06, 0x77,
  0x7f, 0x2e, 0x15, 0x26, 0x43, 0x37, 0x16, 0x07, 0x19, 0xd8, 0x2c, 0x1b,
  0x07, 0x1f, 0xf7, 0x11, 0x03, 0x02, 0xd3, 0x28, 0xf9, 0xf4, 0x17, 0xe2,
  0xea, 0x0d, 0xf2, 0x0f, 0xcd, 0x24, 0xce, 0x21, 0xeb, 0x20, 0x2f, 0x2b,
  0xe6, 0xe1, 0xe4, 0x04, 0x08, 0x08, 0xc4, 0x25, 0xfd, 0xc2, 0xdc, 0xf6,
  0x2a, 0x18, 0x32, 0x09, 0xee, 0xee, 0xf8, 0xea, 0x19, 0xf7, 0xb0, 0xf5,
  0x32, 0x35, 0x4a, 0x29, 0x36, 0x03, 0x18, 0x1e, 0xf9, 0xae, 0x1d, 0xf8,
  0xe0, 0x30, 0xe0, 0x03, 0x92, 0x56, 0x36, 0xd4, 0xb3, 0x0a, 0xc6, 0xf1,
  0x0e, 0x39, 0x16, 0xe3, 0x16, 0xd0, 0xcc, 0xfc, 0x7f, 0x1c, 0x44, 0x64,
  0x30, 0xff, 0xb5, 0x11, 0x04, 0x4e, 0xe4, 0x31, 0x0f, 0xb5, 0x1b, 0xcd,
  0x2a, 0x0a, 0xf0, 0xef, 0x1d, 0xc0, 0x0c, 0xc6, 0xe9, 0xa3, 0x13, 0xcf,
  0x0f, 0x1d, 0xfb, 0xaf, 0x2a, 0x02, 0x24, 0xfc, 0x13, 0x9a, 0xdf, 0x34,
  0x15, 0x3b, 0x08, 0xf0, 0x07, 0x36, 0xb4, 0x9d, 0xaf, 0xc1, 0xb6, 0xb0,
  0xbf, 0x9c, 0x31, 0xe8, 0x3a, 0xa6, 0x30, 0xf5, 0xff, 0x0f, 0x1e, 0xff,
  0x0b, 0x27, 0x6d, 0x4a, 0xd2, 0xd7, 0x08, 0xd8, 0x24, 0x32, 0x28, 0xda,
  0x44, 0x3f, 0xe4, 0x33, 0x2b, 0xcf, 0x1d, 0xe0, 0xe4, 0xfb, 0xed, 0xf0,
  0x00, 0xc8, 0x21, 0xb1, 0xdf, 0xca, 0xf7, 0x1c, 0x29, 0x7f, 0x0e, 0x74,
  0x3e, 0xcb, 0x17, 0xbf, 0x21, 0xc1, 0xcb, 0xeb, 0x3c, 0xb8, 0xef, 0xe7,
  0xf3, 0xcb, 0xf6, 0xec, 0xf1, 0x38, 0xfa, 0xa7, 0x1e, 0xf8, 0xb3, 0xd9,
  0xbf, 0x2c, 0xfe, 0xae, 0x0e, 0xb6, 0x16, 0x21, 0x39, 0x09, 0x46, 0x1b,
  0x0b, 0xf9, 0x17, 0xc2, 0xc5, 0xfe, 0xfa, 0xe3, 0x2b, 0xcc, 0x02, 0xb1,
  0x30, 0x0d, 0xc9, 0x16, 0xa6, 0x01, 0x44, 0xeb, 0xee, 0x9c, 0xb3, 0x35,
  0xed, 0xa4, 0x81, 0x98, 0xa5, 0xcd, 0xe7, 0x67, 0x96, 0x5a, 0x2e, 0x18,
  0x68, 0x77, 0xf0, 0xf3, 0xa1, 0xd8, 0x87, 0xce, 0xf5, 0xd1, 0x1f, 0x27,
  0xe7, 0x4a, 0xc4, 0xe6, 0xfa, 0xb4, 0x56, 0x8f, 0x2e, 0x31, 0xce, 0xa5,
  0x87, 0xa2, 0x9e, 0xb1, 0x1b, 0x67, 0x7b, 0x93, 0x62, 0x14, 0xaa, 0xaa,
  0x56, 0xf2, 0x56, 0xc1, 0xd9, 0xe2, 0x0c, 0x57, 0x1a, 0xe7, 0xa3, 0x01,
  0x08, 0x06, 0x60, 0x55, 0xa7, 0x45, 0xc0, 0xbe, 0x11, 0x04, 0xf3, 0x15,
  0xbf, 0x19, 0x03, 0x42, 0xc7, 0xd5, 0x7b, 0x0f, 0x55, 0x95, 0x1f, 0x64,
  0xd9, 0x04, 0xda, 0x52, 0x92, 0xfd, 0xe7, 0x32, 0x1e, 0x33, 0x41, 0xca,
  0xc9, 0xcf, 0x71, 0xf1, 0xe7, 0x4d, 0x1e, 0x4b, 0x0f, 0xae, 0x53, 0xab,
  0x0f, 0x31, 0x01, 0xaa, 0x36, 0x42, 0xc0, 0x90, 0xf6, 0xf1, 0x5e, 0xa4,
  0xff, 0xe8, 0x35, 0xdd, 0x17, 0x3f, 0x09, 0xe1, 0x1c, 0x32, 0x00, 0xf0,
  0x5f, 0xe2, 0x7f, 0x2b, 0x67, 0x09, 0x07, 0x11, 0x65, 0x21, 0x0a, 0xd1,
  0xfb, 0xd0, 0xd6, 0x89, 0xf7, 0xef, 0x03, 0x41, 0xc7, 0xba, 0x3f, 0x31,
  0xac, 0x0a, 0xb4, 0xc8, 0xb9, 0x2c, 0x28, 0x27, 0xe5, 0x3b, 0xe7, 0xd0,
  0x2c, 0x1d, 0x02, 0x1f, 0x02, 0x92, 0x00, 0x1a, 0xc6, 0xa4, 0xab, 0x4d,
  0xda, 0xab, 0x0b, 0x0d, 0x17, 0xd5, 0xd5, 0xde, 0x44, 0x1f, 0x43, 0xd0,
  0xa8, 0xc8, 0x0c, 0x02, 0x0d, 0xd3, 0x0b, 0x07, 0xfa, 0xcf, 0x0d, 0x08,
  0xf3, 0x31, 0x21, 0x30, 0xe1, 0x06, 0x37, 0x27, 0x21, 0x21, 0xed, 0x42,
  0x2b, 0x48, 0x3d, 0x46, 0x54, 0xfd, 0x42, 0x43, 0xcc, 0xb8, 0x81, 0xdd,
  0xe1, 0xfa, 0xc8, 0xc5, 0x1b, 0xbd, 0xda, 0x07, 0x17, 0xf2, 0xf1, 0x23,
  0x44, 0xf3, 0x20, 0x0a, 0x0f, 0x24, 0xec, 0x34, 0xe6, 0xd3, 0x21, 0x10,
  0x1f, 0x05, 0x33, 0x16, 0x2f, 0xf2, 0x43, 0xee, 0x2b, 0x1f, 0xe5, 0x1a,
  0x0a, 0x03, 0x24, 0x53, 0xcc, 0xc9, 0x3b, 0x13, 0xec, 0xe0, 0xbf, 0xe0,
  0xda, 0x13, 0x1e, 0xed, 0x11, 0xd4, 0xab, 0x26, 0x18, 0x18, 0x3d, 0xd9,
  0x03, 0x13, 0x7f, 0x6c, 0x58, 0x0b, 0x06, 0xae, 0xf0, 0x1f, 0x5f, 0xbd,
  0x02, 0x4c, 0x0e, 0xfa, 0x4d, 0x29, 0x24, 0xfe, 0x0b, 0x1a, 0xd1, 0xeb,
  0xd9, 0x26, 0x02, 0xf2, 0xd3, 0xdf, 0x28, 0x16, 0xf8, 0x1d, 0x2a, 0x58,
  0x12, 0x7e, 0x67, 0x11, 0x27, 0x4f, 0x12, 0x34, 0x05, 0xa6, 0xe4, 0xdf,
  0x42, 0xaf, 0x2a, 0x08, 0x02, 0x1c, 0x05, 0x16, 0xea, 0xb2, 0xed, 0x1b,
  0xbe, 0x1d, 0xc2, 0xc9, 0xa6, 0x19, 0xea, 0xd1, 0xf1, 0xcc, 0x1d, 0xdb,
  0x58, 0xb7, 0x92, 0x21, 0x1a, 0xea, 0xe5, 0xf8, 0x47, 0x1b, 0x0e, 0xca,
  0xe1, 0x2d, 0xa5, 0xe1, 0x2d, 0xf6, 0x0e, 0xfc, 0xed, 0xf5, 0x26, 0xd8,
  0x04, 0xa9, 0xec, 0xae, 0xbd, 0xe2, 0xed, 0xdf, 0x20, 0xde, 0xe4, 0x22,
  0x25, 0x32, 0xe9, 0x17, 0x0c, 0x01, 0x18, 0xd8, 0xea, 0xfd, 0x1c, 0xf7,
  0xe8, 0x12, 0xe9, 0x12, 0x57, 0x43, 0x02, 0xed, 0xb0, 0x96, 0xd8, 0x81,
  0xbe, 0xb4, 0x09, 0x0c, 0xdb, 0x00, 0xee, 0x2b, 0x22, 0x24, 0x11, 0xea,
  0xf5, 0x3c, 0x28, 0x0a, 0xfe, 0xfa, 0x27, 0x1f, 0xff, 0x23, 0x09, 0x09,
  0xfa, 0xf8, 0x2a, 0xf7, 0x01, 0x2b, 0x1c, 0xec, 0x1c, 0x16, 0x04, 0x25,
  0x08, 0x15, 0x16, 0x15, 0xfa, 0x01, 0xde, 0x27, 0x08, 0xf4, 0x08, 0xe9,
  0x0f, 0x08, 0x2b, 0x2b, 0xe1, 0x37, 0x0b, 0x60, 0x1f, 0xf4, 0xdb, 0xe4,
  0x11, 0xb1, 0x9e, 0xbd, 0xd8, 0xfd, 0xd1, 0xf4, 0xea, 0xb5, 0x3c, 0x50,
  0x4e, 0x04, 0xce, 0x09, 0x13, 0x46, 0x21, 0xfe, 0xe5, 0x1e, 0xe5, 0xf8,
  0x3f, 0x1e, 0x10, 0xf6, 0x3f, 0xce, 0x0e, 0xd3, 0xab, 0xa2, 0x81, 0xf4,
  0x9c, 0xb8, 0xcf, 0xce, 0xec, 0x15, 0xee, 0xce, 0x3d, 0x4a, 0x2f, 0xf3,
  0xe1, 0x0b, 0xf4, 0x2b, 0x3d, 0x33, 0x41, 0xf3, 0xdd, 0x23, 0x0f, 0x33,
  0x25, 0x27, 0xee, 0x25, 0xf3, 0xc6, 0x19, 0x46, 0x43, 0x17, 0x32, 0x0a,
  0x31, 0x25, 0xee, 0xf0, 0xe8, 0xe3, 0xfa, 0xfd, 0xd2, 0x3b, 0xf9, 0x11,
  0xdf, 0xf1, 0x3e, 0xeb, 0x14, 0x39, 0xb7, 0x2e, 0xbd, 0x14, 0xe7, 0x27,
  0x13, 0x2f, 0xff, 0x39, 0x56, 0x21, 0x34, 0x05, 0x2f, 0xcf, 0x56, 0xed,
  0x1e, 0xe2, 0xf1, 0x01, 0xd7, 0xdb, 0x3e, 0x0a, 0xce, 0x2e, 0xe0, 0x05,
  0xc6, 0x30, 0xb9, 0xbc, 0x32, 0xc4, 0x14, 0x44, 0x04, 0x7f, 0xff, 0x0c,
  0x29, 0xfd, 0x48, 0x10, 0x36, 0xd0, 0x54, 0xee, 0x20, 0x26, 0xf3, 0x45,
  0xe9, 0xf3, 0xf3, 0xdd, 0xef, 0xe5, 0x11, 0xeb, 0xc6, 0x3c, 0xea, 0xd0,
  0x36, 0xe0, 0x1d, 0x29, 0xde, 0x0e, 0x3d, 0xe1, 0xc8, 0x32, 0x26, 0xe8,
  0x34, 0x12, 0xdc, 0x01, 0x22, 0xd6, 0xe2, 0xc9, 0x41, 0x04, 0xf9, 0xcf,
  0xe9, 0x31, 0x1d, 0xef, 0x43, 0x5f, 0x99, 0xf5, 0xfa, 0x57, 0x01, 0xb0,
  0xd7, 0x31, 0x13, 0xd4, 0xac, 0xd5, 0xe7, 0xb7, 0xf4, 0xb0, 0x3b, 0x59,
  0xad, 0xd9, 0xac, 0x06, 0x50, 0xcb, 0x01, 0x9a, 0x45, 0x81, 0xe2, 0xb2,
  0xcb, 0xf1, 0x5b, 0x55, 0x4f, 0x3f, 0xbd, 0xb7, 0x6f, 0x04, 0x05, 0x7b,
  0x6c, 0xef, 0x63, 0xba, 0x29, 0x0e, 0xf4, 0x06, 0x2c, 0xdb, 0x3c, 0xef,
  0xd6, 0x56, 0x40, 0x0c, 0x5c, 0x40, 0xde, 0xd3, 0xe5, 0x45, 0xe7, 0x18,
  0x03, 0x61, 0xb7, 0x44, 0xe5, 0xe8, 0xfb, 0x22, 0xd8, 0xed, 0xf4, 0xe8,
  0x94, 0x3a, 0xb7, 0xc5, 0x5c, 0x2e, 0x56, 0xd6, 0xea, 0x11, 0xc6, 0x06,
  0x2c, 0x18, 0x4d, 0xc6, 0x26, 0xdc, 0x2c, 0xd1, 0x17, 0x39, 0xbd, 0xd0,
  0x44, 0x60, 0x4c, 0xd6, 0xb9, 0x40, 0x07, 0xc4, 0xc0, 0xe4, 0x86, 0xb6,
  0xa2, 0xb5, 0xf1, 0xbe, 0xfb, 0xf7, 0xe2, 0x9f, 0xe0, 0x01, 0xe5, 0xd3,
  0x0b, 0x27, 0x00, 0xea, 0x44, 0xf3, 0x29, 0xe8, 0x7f, 0x22, 0x1f, 0xee,
  0x33, 0xf5, 0xb0, 0x4a, 0x3a, 0xb2, 0xcf, 0xd7, 0xfd, 0xf7, 0x0f, 0xe6,
  0x3e, 0x2d, 0xcc, 0x0e, 0xc6, 0xfa, 0x13, 0xa2, 0x04, 0xd8, 0xfc, 0xf8,
  0x36, 0xe1, 0x2c, 0x26, 0xfb, 0x17, 0xd4, 0xa9, 0x0a, 0xd0, 0x40, 0x25,
  0xf7, 0xa4, 0x06, 0xfd, 0xf7, 0x30, 0xe2, 0x0b, 0xf5, 0xf5, 0xf6, 0xfb,
  0x27, 0xd9, 0xdf, 0xd0, 0xf5, 0xdc, 0xf2, 0x76, 0xcc, 0x3e, 0x1c, 0xff,
  0xb2, 0xce, 0xa3, 0x81, 0xf1, 0xae, 0x49, 0x1e, 0x04, 0xf0, 0x0e, 0xce,
  0x37, 0xbd, 0xe1, 0x29, 0xeb, 0x06, 0xbb, 0x20, 0x4f, 0xfa, 0xd6, 0xed,
  0x29, 0x34, 0xdc, 0x12, 0xf0, 0x2b, 0x18, 0x1e, 0xd6, 0x94, 0xe3, 0xd3,
  0xac, 0xdd, 0xc1, 0xf0, 0xf6, 0x16, 0x09, 0xe0, 0x22, 0xf4, 0x2c, 0xce,
  0xb9, 0x3b, 0x2a, 0x46, 0x3a, 0x5a, 0x35, 0x17, 0x30, 0xfb, 0xed, 0xe6,
  0xbb, 0xd5, 0xf7, 0xfa, 0xdf, 0x26, 0xec, 0xe2, 0x3b, 0x58, 0xf0, 0xca,
  0x31, 0x3e, 0x0c, 0x24, 0xff, 0xd9, 0x05, 0x43, 0x20, 0x26, 0xdd, 0x3e,
  0xe9, 0x00, 0xfa, 0x13, 0x19, 0xc2, 0xfe, 0x43, 0xe1, 0x23, 0xec, 0xad,
  0xb2, 0xb0, 0xa5, 0xde, 0xca, 0x08, 0x0d, 0xbd, 0xc9, 0x31, 0x15, 0x12,
  0xe1, 0xe3, 0x23, 0xd7, 0xdd, 0x07, 0x07, 0xeb, 0x4f, 0x15, 0xe6, 0xc8,
  0xf0, 0xc0, 0xc7, 0x34, 0x63, 0x55, 0xf3, 0xa7, 0xf5, 0x81, 0xa8, 0xf2,
  0xc7, 0xcc, 0xeb, 0x08, 0x1d, 0x36, 0xdc, 0xeb, 0x03, 0x1c, 0x1d, 0x26,
  0x14, 0xf7, 0xd2, 0x3b, 0x28, 0xf2, 0xd3, 0xce, 0x16, 0xff, 0xfe, 0x35,
  0x08, 0x44, 0x2f, 0xeb, 0xd5, 0xe6, 0x0d, 0x17, 0xfe, 0xff, 0xcd, 0xf0,
  0x21, 0x45, 0xca, 0x28, 0x4b, 0x4b, 0xf1, 0x36, 0x39, 0x50, 0x27, 0x24,
  0x4b, 0xf3, 0x3c, 0xcd, 0x05, 0xf9, 0x0d, 0x31, 0xe3, 0xdf, 0xae, 0xc9,
  0xd9, 0x14, 0x24, 0x4b, 0xfa, 0x08, 0xe6, 0x38, 0xd5, 0x3a, 0x2a, 0xbd,
  0xf6, 0x08, 0x26, 0x0d, 0xf6, 0x47, 0x1f, 0x2f, 0x14, 0x37, 0xfe, 0x1f,
  0x4a, 0xca, 0x1e, 0xf4, 0x07, 0xb5, 0xae, 0xfc, 0x53, 0x7f, 0xf8, 0x6d,
  0x21, 0xe3, 0x38, 0xe7, 0x22, 0x40, 0x0e, 0x08, 0x07, 0x04, 0x42, 0x0c,
  0xfd, 0x39, 0x0f, 0xc2, 0x40, 0xf0, 0xdc, 0x47, 0xcd, 0x05, 0x22, 0xd7,
  0x45, 0x11, 0xb4, 0xc3, 0xfe, 0xd5, 0x3a, 0x32, 0x25, 0xc0, 0xfd, 0xe0,
  0xec, 0xb8, 0xac, 0x30, 0xf0, 0x35, 0xbe, 0xd7, 0xf4, 0xe1, 0xd7, 0x07,
  0x22, 0x00, 0x04, 0xe0, 0x2e, 0xf6, 0xff, 0xff, 0x04, 0x00, 0x00, 0x00,
  0x00, 0x01, 0x00, 0x00, 0x8f, 0x05, 0x00, 0x00, 0x3c, 0x07, 0x00, 0x00,
  0xee, 0xfe, 0xff, 0xff, 0xa5, 0x02, 0x00, 0x00, 0x5d, 0x00, 0x00, 0x00,
  0x4e, 0x04, 0x00, 0x00, 0xfd, 0x02, 0x00, 0x00, 0x76, 0x00, 0x00, 0x00,
  0xc5, 0xfd, 0xff, 0xff, 0x38, 0x03, 0x00, 0x00, 0xd5, 0xfe, 0xff, 0xff,
  0x48, 0x00, 0x00, 0x00, 0x59, 0x04, 0x00, 0x00, 0x60, 0x04, 0x00, 0x00,
  0x97, 0x03, 0x00, 0x00, 0xd5, 0xfc, 0xff, 0xff, 0xbb, 0xfe, 0xff, 0xff,
  0x05, 0xfe, 0xff, 0xff, 0xce, 0xff, 0xff, 0xff, 0x7f, 0xfe, 0xff, 0xff,
  0xa6, 0xfc, 0xff, 0xff, 0xbc, 0x00, 0x00, 0x00, 0x78, 0x01, 0x00, 0x00,
  0x48, 0x03, 0x00, 0x00, 0x13, 0xff, 0xff, 0xff, 0x32, 0xff, 0xff, 0xff,
  0x3e, 0x00, 0x00, 0x00, 0x25, 0xfe, 0xff, 0xff, 0xc1, 0xfb, 0xff, 0xff,
  0x30, 0x00, 0x00, 0x00, 0xb8, 0x01, 0x00, 0x00, 0x2c, 0x05, 0x00, 0x00,
  0x3d, 0x05, 0x00, 0x00, 0x2c, 0xfd, 0xff, 0xff, 0x49, 0x05, 0x00, 0x00,
  0xbe, 0x01, 0x00, 0x00, 0x7a, 0xfe, 0xff, 0xff, 0xf2, 0x00, 0x00, 0x00,
  0x01, 0x02, 0x00, 0x00, 0x7b, 0x03, 0x00, 0x00, 0x23, 0x02, 0x00, 0x00,
  0x43, 0x05, 0x00, 0x00, 0xef, 0x01, 0x00, 0x00, 0x51, 0x00, 0x00, 0x00,
  0x91, 0x03, 0x00, 0x00, 0x6c, 0x04, 0x00, 0x00, 0x0b, 0x03, 0x00, 0x00,
  0xbf, 0x02, 0x00, 0x00, 0x4d, 0xfe, 0xff, 0xff, 0x49, 0x04, 0x00, 0x00,
  0x19, 0x07, 0x00, 0x00, 0x8f, 0x06, 0x00, 0x00, 0x65, 0x00, 0x00, 0x00,
  0xab, 0xff, 0xff, 0xff, 0x0b, 0xff, 0xff, 0xff, 0x3c, 0x03, 0x00, 0x00,
  0x81, 0xfe, 0xff, 0xff, 0x55, 0xfe, 0xff, 0xff, 0xc5, 0x02, 0x00, 0x00,
  0x05, 0x00, 0x00, 0x00, 0x25, 0x04, 0x00, 0x00, 0xf7, 0xfc, 0xff, 0xff,
  0x24, 0xfe, 0xff, 0xff, 0x34, 0x03, 0x00, 0x00, 0x3a, 0xf7, 0xff, 0xff,
  0x04, 0x00, 0x00, 0x00, 0x00, 0x08, 0x00, 0x00, 0xca, 0xa5, 0x45, 0xd4,
  0x25, 0x1b, 0xfb, 0x56, 0xff, 0xf1, 0x3b, 0x4b, 0xbe, 0xea, 0x2d, 0x2c,
  0x6f, 0x46, 0x21, 0x65, 0x6e, 0x35, 0xdf, 0x4c, 0x02, 0x04, 0x18, 0xd5,
  0xe4, 0xd9, 0x3a, 0xe0, 0x1f, 0xdf, 0xd3, 0xc4, 0xf8, 0xc8, 0x2a, 0xaa,
  0x36, 0xf4, 0xeb, 0x2e, 0xb9, 0xc4, 0xfe, 0x0b, 0x34, 0xe5, 0xe1, 0xcd,
  0xf6, 0xb7, 0xf4, 0x12, 0x7f, 0x11, 0x05, 0x28, 0xac, 0x10, 0x3b, 0x19,
  0x79, 0x07, 0xff, 0x2b, 0xf4, 0x7c, 0x08, 0x18, 0xe9, 0x26, 0xc7, 0xef,
  0x4b, 0x7f, 0xe3, 0xe5, 0xe4, 0x2e, 0x4c, 0x0c, 0xd7, 0x31, 0xf0, 0x00,
  0x55, 0x13, 0xba, 0x92, 0x43, 0xda, 0x64, 0xf2, 0x50, 0xc5, 0x2b, 0x46,
  0x41, 0x3a, 0xe2, 0xfd, 0x40, 0x3f, 0xe5, 0x4f, 0x34, 0x1d, 0x51, 0xec,
  0x9a, 0x30, 0x47, 0x62, 0xfd, 0xb2, 0xed, 0x04, 0x3b, 0xbe, 0x7e, 0x35,
  0x2d, 0x1b, 0xa6, 0x4f, 0x35, 0x2a, 0x3b, 0x54, 0x21, 0x0e, 0x0a, 0xf7,
  0x2d, 0x7f, 0x0a, 0x12, 0x70, 0x70, 0x68, 0xbb, 0xa9, 0x0d, 0x3a, 0xf5,
  0xd1, 0x2a, 0xce, 0x26, 0x4d, 0x24, 0x33, 0x42, 0xb6, 0x48, 0xf6, 0xd9,
  0xdc, 0xc6, 0x61, 0xc9, 0x1f, 0xeb, 0xc7, 0x5e, 0xfa, 0x65, 0x39, 0x9e,
  0xd9, 0xe8, 0xce, 0x5a, 0xa7, 0x70, 0x6c, 0xc9, 0x0f, 0xf6, 0x2a, 0x32,
  0xbe, 0x41, 0x22, 0xcc, 0x22, 0xb6, 0xaa, 0x0c, 0x99, 0xe1, 0x25, 0xa7,
  0xe2, 0xc9, 0x50, 0xc7, 0xef, 0x25, 0xec, 0x00, 0xc4, 0xb8, 0x40, 0x67,
  0x5a, 0x2e, 0xc8, 0x71, 0x1f, 0xb5, 0x40, 0x2d, 0xcf, 0x33, 0x51, 0x6c,
  0xc6, 0xac, 0x64, 0x38, 0xc2, 0x12, 0x22, 0x3d, 0x7f, 0xb9, 0xf5, 0x48,
  0xb9, 0xa7, 0xd6, 0xf7, 0xda, 0x99, 0x54, 0x4b, 0x44, 0xee, 0x98, 0x83,
  0x3b, 0xe4, 0x3c, 0x13, 0x2b, 0x47, 0xa2, 0x27, 0xe1, 0x40, 0x2a, 0x04,
  0x78, 0x5b, 0xd9, 0xe6, 0x21, 0x48, 0xd4, 0xd7, 0x18, 0xd7, 0x07, 0x32,
  0x35, 0x37, 0x17, 0x0c, 0xb2, 0xc7, 0x3f, 0xfd, 0xb5, 0x4c, 0x25, 0x3b,
  0xcd, 0xaa, 0x2c, 0xb2, 0x37, 0x6c, 0x32, 0xf7, 0x7f, 0xef, 0x75, 0xf7,
  0x31, 0x14, 0xd5, 0x1a, 0x57, 0xf6, 0xd5, 0x31, 0x60, 0x2c, 0xe9, 0x33,
  0xec, 0x2e, 0xe3, 0x21, 0xd6, 0x5c, 0xdb, 0x43, 0xb2, 0x1f, 0x47, 0x21,
  0xda, 0x1b, 0x04, 0x74, 0x7f, 0x64, 0xca, 0xe2, 0x1b, 0x5e, 0x4e, 0xeb,
  0x0f, 0x72, 0xd6, 0xf3, 0x71, 0x6f, 0x59, 0xdb, 0x1a, 0xbb, 0xdf, 0xf6,
  0x2f, 0xe6, 0xe1, 0x3e, 0xff, 0x2d, 0x2f, 0xca, 0x03, 0x57, 0x3a, 0x23,
  0x10, 0xf2, 0xde, 0x4f, 0xb7, 0x6b, 0x10, 0xfa, 0x1c, 0x32, 0xe9, 0xc1,
  0x6d, 0xf5, 0x3f, 0x4e, 0x15, 0x1f, 0x3b, 0x5d, 0xe3, 0x50, 0x06, 0x69,
  0xaa, 0xcb, 0xf4, 0x0b, 0x58, 0x0b, 0x29, 0x3a, 0xae, 0xf3, 0x1e, 0x10,
  0x24, 0xbc, 0xa5, 0x70, 0x5d, 0x34, 0xed, 0xf3, 0xcf, 0xe0, 0xc7, 0xd4,
  0x2a, 0x26, 0x2f, 0x6f, 0x35, 0x4b, 0x5c, 0xf2, 0xbb, 0x46, 0x43, 0x6b,
  0xf0, 0x3d, 0x4e, 0xa4, 0x8e, 0x57, 0x24, 0x4f, 0x1e, 0xc8, 0xbb, 0x9f,
  0xe4, 0xa1, 0x49, 0x55, 0xfd, 0xa0, 0xa6, 0xa0, 0xde, 0xa9, 0xc8, 0x0a,
  0x49, 0xbf, 0x7f, 0xcb, 0xfa, 0x67, 0x40, 0x60, 0x8f, 0x75, 0x3e, 0xe2,
  0x8c, 0xa7, 0x31, 0xc0, 0xe3, 0xbd, 0xe3, 0x1c, 0x20, 0xaf, 0x2c, 0xc0,
  0xcf, 0xf2, 0xfb, 0x1c, 0x62, 0x4b, 0x1e, 0x48, 0x0b, 0xff, 0xcb, 0x0f,
  0xe0, 0x75, 0x2f, 0x70, 0xd4, 0x06, 0xe8, 0xa9, 0xfd, 0x38, 0x22, 0x16,
  0x7f, 0xe4, 0xf5, 0x12, 0xdd, 0x10, 0xd5, 0x5f, 0xb3, 0xad, 0xf1, 0xc9,
  0x58, 0xe5, 0x03, 0xf7, 0x48, 0xf5, 0x0c, 0x13, 0x48, 0x14, 0xe6, 0x17,
  0x20, 0x25, 0x3b, 0xfa, 0xe2, 0xb6, 0xa2, 0xe6, 0x6e, 0xce, 0x4c, 0x4a,
  0xd2, 0x50, 0xc5, 0xe6, 0x98, 0xef, 0x9d, 0x3e, 0xbd, 0xc9, 0xd3, 0x38,
  0x9b, 0x49, 0xca, 0x08, 0xb7, 0x4f, 0xaa, 0xbc, 0x57, 0xc8, 0x41, 0x07,
  0x46, 0xf5, 0xe5, 0xd3, 0x50, 0x38, 0x03, 0x4c, 0xcd, 0x81, 0x9e, 0xc0,
  0xd0, 0xb8, 0xd9, 0xa4, 0xb1, 0xbc, 0x34, 0x8d, 0x02, 0x05, 0xa0, 0x15,
  0xbc, 0x52, 0x97, 0x76, 0x9b, 0x69, 0xaa, 0xa6, 0xf0, 0x3e, 0xa5, 0x38,
  0x01, 0x43, 0x4d, 0x08, 0xcd, 0x4d, 0xc2, 0x4e, 0x63, 0x53, 0x53, 0x12,
  0xb3, 0xbc, 0x36, 0xba, 0xde, 0x5e, 0x59, 0x71, 0x54, 0xec, 0x51, 0xca,
  0xd0, 0xde, 0xd9, 0x72, 0x1e, 0xdd, 0x35, 0xff, 0xaa, 0x00, 0x0f, 0x4b,
  0xe9, 0x73, 0xe3, 0x13, 0xe7, 0x7f, 0x43, 0x1c, 0x33, 0x69, 0x58, 0x61,
  0x2e, 0x39, 0xd1, 0x1f, 0x28, 0xe2, 0x2c, 0xe1, 0x58, 0xa7, 0xef, 0x60,
  0x4e, 0x70, 0xa0, 0x4e, 0x11, 0x15, 0x0f, 0xff, 0xf7, 0x7f, 0xa1, 0x3e,
  0x08, 0x55, 0x44, 0xbf, 0x4c, 0xa4, 0x4e, 0x0b, 0x08, 0x22, 0x04, 0x3a,
  0xeb, 0x06, 0x57, 0xb6, 0xc5, 0x00, 0x34, 0x66, 0x54, 0xae, 0x3a, 0x11,
  0xa4, 0xd9, 0x3c, 0x68, 0x20, 0x73, 0x56, 0xc6, 0x34, 0x21, 0xf1, 0xf8,
  0x00, 0x06, 0x71, 0x49, 0x1a, 0x3b, 0xed, 0xd1, 0xb7, 0x14, 0x00, 0x1f,
  0x5f, 0xea, 0x05, 0x00, 0x91, 0xb6, 0x78, 0x5b, 0xae, 0xa2, 0x9d, 0x5f,
  0xe0, 0x9f, 0x4b, 0x09, 0xa0, 0x07, 0xe7, 0x30, 0x3c, 0x3d, 0xd2, 0x42,
  0x44, 0xd0, 0xb4, 0x5e, 0xd6, 0xe4, 0x3b, 0x01, 0x6f, 0x43, 0x5e, 0x1c,
  0x12, 0x07, 0xd0, 0x0a, 0x56, 0x26, 0xd4, 0xbf, 0x5c, 0xb9, 0x14, 0x4c,
  0xc5, 0xf5, 0xea, 0xdd, 0x56, 0xfe, 0xc0, 0xf4, 0xef, 0xd7, 0xf9, 0xbe,
  0x7f, 0x62, 0xfd, 0xf8, 0x41, 0xf0, 0x2c, 0x94, 0x1f, 0x82, 0x48, 0x05,
  0xd0, 0xaa, 0xf4, 0x41, 0x61, 0x10, 0x74, 0x46, 0x42, 0x98, 0xfb, 0xc7,
  0x32, 0x41, 0x74, 0x0b, 0x4f, 0x44, 0x9a, 0x1f, 0xf3, 0x7f, 0x4c, 0x02,
  0xea, 0x9f, 0xad, 0x0c, 0x2a, 0xf1, 0xee, 0xeb, 0x35, 0x56, 0xf7, 0xf7,
  0xa5, 0x98, 0xac, 0x2a, 0x36, 0xb4, 0x2d, 0x08, 0x6e, 0xc6, 0x29, 0xb8,
  0xf3, 0x43, 0x04, 0x13, 0xd5, 0x1f, 0x99, 0x0f, 0x2e, 0x1c, 0x4a, 0xe3,
  0x1e, 0xea, 0x26, 0x47, 0x05, 0x05, 0x66, 0x35, 0xf5, 0x1a, 0xae, 0x52,
  0x77, 0x2e, 0x7b, 0x11, 0x04, 0x35, 0x31, 0xc7, 0xd0, 0xe7, 0x3a, 0x24,
  0x2d, 0xca, 0xdc, 0xf0, 0xcd, 0xdd, 0xd9, 0x3d, 0x06, 0xca, 0xff, 0x5e,
  0xb4, 0x00, 0xe3, 0x50, 0x5d, 0x39, 0xe6, 0xec, 0x0f, 0x2c, 0xfb, 0x5e,
  0xb9, 0x39, 0x24, 0x64, 0xfa, 0x0b, 0x41, 0x7a, 0xa6, 0xf2, 0x36, 0x59,
  0x7f, 0xc9, 0xda, 0x42, 0xdf, 0x1a, 0xa5, 0x0e, 0x62, 0xde, 0x94, 0x41,
  0x72, 0xec, 0xb1, 0x64, 0x59, 0x98, 0x14, 0xfc, 0xae, 0xde, 0x4b, 0x1b,
  0x42, 0x60, 0x67, 0xff, 0x1d, 0xb2, 0xdf, 0x81, 0xe5, 0x30, 0x22, 0x2b,
  0x3e, 0xe9, 0xcc, 0x8b, 0x4f, 0x87, 0xa1, 0x3f, 0x3f, 0xcd, 0x1f, 0xbf,
  0x04, 0x02, 0x3a, 0x0a, 0xcf, 0xd1, 0x04, 0xe2, 0x5d, 0x48, 0x8f, 0x3a,
  0x10, 0xcc, 0x99, 0x5a, 0xcd, 0xde, 0x3c, 0x59, 0xcd, 0xcd, 0xef, 0xc6,
  0xf4, 0x14, 0x01, 0x09, 0xbf, 0x38, 0xbf, 0x4d, 0xd6, 0xfd, 0xe1, 0x4d,
  0x0e, 0x93, 0xa7, 0x5b, 0x41, 0x65, 0x5f, 0x65, 0x39, 0x50, 0xa3, 0x92,
  0x42, 0xf8, 0x40, 0x2b, 0xc3, 0x32, 0xb4, 0x6a, 0x1b, 0x3d, 0x54, 0x5d,
  0x72, 0xad, 0xd1, 0x9a, 0xa9, 0x4b, 0xa2, 0x59, 0xc8, 0x4b, 0xd1, 0x7f,
  0xa3, 0x21, 0x89, 0xd1, 0xa6, 0x45, 0xa0, 0x2a, 0x50, 0xe9, 0x8b, 0xdc,
  0x67, 0x0a, 0xe8, 0x4d, 0x4a, 0x5a, 0x0e, 0xc2, 0xb5, 0x57, 0xb2, 0xd8,
  0x1c, 0xca, 0xd6, 0xb5, 0x0e, 0x16, 0x60, 0xbd, 0x1a, 0x5c, 0x6b, 0xdc,
  0xce, 0xb7, 0xba, 0x9f, 0x5f, 0xe0, 0xd0, 0x1a, 0x1f, 0xd7, 0x45, 0xbc,
  0xf6, 0x63, 0x6c, 0xa4, 0xc5, 0x6f, 0xef, 0xbd, 0x47, 0x66, 0xb2, 0x73,
  0x2b, 0x61, 0x15, 0x7f, 0x0f, 0x2f, 0x38, 0x5c, 0x14, 0x01, 0xf0, 0x44,
  0xba, 0xe8, 0xee, 0x6e, 0xac, 0x8c, 0x7a, 0xd9, 0xbc, 0xef, 0x0c, 0x22,
  0x5e, 0xab, 0xed, 0x02, 0xf1, 0xb0, 0x0f, 0xf8, 0x0e, 0xec, 0xfa, 0x26,
  0x00, 0xfb, 0xc0, 0xfb, 0xb5, 0x70, 0xc4, 0x49, 0x22, 0xc8, 0x02, 0xc8,
  0xa3, 0xf1, 0xea, 0xd9, 0x62, 0x15, 0x29, 0xc5, 0x60, 0xdc, 0x55, 0x0e,
  0x1a, 0xf1, 0xf1, 0x44, 0xe5, 0xc8, 0xca, 0x92, 0xed, 0xeb, 0x7f, 0x1c,
  0x40, 0x5f, 0xb4, 0xe2, 0x11, 0x51, 0xe1, 0x4c, 0x1c, 0xa6, 0x75, 0x07,
  0xcc, 0xf4, 0xc0, 0x4e, 0x4f, 0x10, 0x33, 0xb9, 0xf1, 0x16, 0x3d, 0x00,
  0x20, 0xfc, 0xe4, 0xf9, 0x2a, 0xf4, 0xde, 0xc0, 0xb7, 0x52, 0xef, 0x67,
  0xdd, 0xe9, 0xec, 0xc2, 0xb3, 0x5c, 0x3a, 0x3e, 0x7f, 0xf8, 0x18, 0xfa,
  0x3c, 0xe8, 0x10, 0x4a, 0x25, 0x0b, 0xcf, 0x0c, 0xf4, 0x02, 0x90, 0xbc,
  0x26, 0x02, 0x38, 0xcb, 0x3c, 0x6c, 0xb7, 0xfa, 0xea, 0x4c, 0x2b, 0xa0,
  0x36, 0x49, 0xf4, 0x30, 0x49, 0xe7, 0xd5, 0x14, 0xec, 0xc4, 0x30, 0xb0,
  0x1e, 0xb4, 0x13, 0x08, 0xeb, 0xe3, 0xe8, 0x29, 0xa1, 0xe5, 0x51, 0xb7,
  0xba, 0xc3, 0x3c, 0x15, 0xac, 0x5e, 0x5b, 0x55, 0x5a, 0xcc, 0x41, 0x7f,
  0xd8, 0xce, 0x1d, 0x63, 0x70, 0x11, 0xf9, 0x09, 0x40, 0x56, 0x58, 0xbc,
  0xb6, 0xf5, 0x48, 0x13, 0x26, 0x0d, 0xeb, 0xf3, 0x9f, 0x10, 0x6e, 0x5c,
  0x29, 0xca, 0xbc, 0xd6, 0x22, 0x54, 0xcf, 0x54, 0x14, 0xec, 0xe5, 0x5b,
  0xfd, 0xf8, 0xcf, 0xf9, 0xea, 0x1d, 0x30, 0x56, 0x4d, 0xbe, 0x34, 0xf5,
  0xda, 0xb0, 0xad, 0xbb, 0x20, 0x9e, 0xb7, 0x10, 0x2f, 0x2a, 0x55, 0x2a,
  0x7f, 0xba, 0x5a, 0xc6, 0xec, 0x37, 0x44, 0x6c, 0x29, 0x46, 0x4a, 0x1b,
  0xd3, 0x57, 0x2d, 0x42, 0xbe, 0x1b, 0x46, 0x40, 0xfd, 0xe7, 0x1c, 0x71,
  0x1b, 0xdc, 0xca, 0x1f, 0x14, 0x2c, 0xc3, 0x46, 0xf4, 0xee, 0xd0, 0x59,
  0xd2, 0xfe, 0x6f, 0x03, 0xd8, 0x44, 0x16, 0x00, 0x5b, 0x2f, 0xf0, 0x1c,
  0x2b, 0x39, 0x1b, 0xc6, 0xbf, 0xe9, 0xca, 0xe8, 0x05, 0xa7, 0x00, 0x00,
  0xcc, 0xde, 0x1e, 0x2c, 0x3b, 0xad, 0x17, 0x5a, 0xe9, 0x0b, 0x37, 0xf1,
  0xd6, 0xb5, 0x45, 0x5a, 0x7f, 0xdc, 0xf2, 0xeb, 0xf1, 0x59, 0x4c, 0x33,
  0x58, 0xe2, 0xb2, 0xeb, 0xa3, 0x15, 0x16, 0xaf, 0x7d, 0xef, 0x1d, 0x03,
  0x1d, 0xc8, 0x32, 0xd0, 0xc1, 0xbf, 0xa5, 0x37, 0x53, 0xf0, 0x5c, 0x3c,
  0x1c, 0xcc, 0x19, 0xef, 0x30, 0x5d, 0x01, 0x1c, 0x1f, 0x00, 0x33, 0xbd,
  0x45, 0x66, 0x60, 0x67, 0x4b, 0x2a, 0x08, 0xbe, 0xf1, 0x02, 0xe1, 0x20,
  0x34, 0xee, 0xb7, 0x08, 0x16, 0x9a, 0x17, 0xd0, 0x33, 0x9d, 0xd4, 0x16,
  0x2d, 0x81, 0xe3, 0x82, 0x14, 0xd6, 0x17, 0x0a, 0x2a, 0x68, 0xc4, 0x16,
  0x0b, 0x0e, 0x28, 0x14, 0x3a, 0x57, 0x2b, 0x4c, 0x39, 0xd9, 0xd1, 0xe8,
  0xb7, 0xb8, 0x00, 0x0e, 0x34, 0xeb, 0xd5, 0xd8, 0xdc, 0x16, 0x4a, 0xa6,
  0x1e, 0xff, 0x21, 0x1c, 0x40, 0x0e, 0xc2, 0xa1, 0x43, 0x5e, 0x1d, 0x55,
  0xef, 0xfe, 0x29, 0x3d, 0x99, 0x07, 0x13, 0x37, 0x53, 0x58, 0x46, 0xd9,
  0x35, 0x7f, 0x41, 0x58, 0xc6, 0xf3, 0x1f, 0x2f, 0x45, 0xba, 0x30, 0x6b,
  0xf5, 0xa9, 0xec, 0x1e, 0x7b, 0xe7, 0xd4, 0x71, 0xe4, 0xd3, 0x79, 0x0c,
  0x48, 0xee, 0x96, 0x4d, 0x77, 0xaf, 0x4e, 0xd0, 0x05, 0x13, 0xc7, 0x6c,
  0x51, 0x1f, 0x28, 0xeb, 0x7f, 0x23, 0xee, 0xe1, 0xcb, 0x0c, 0x13, 0x75,
  0x1c, 0x14, 0xdb, 0xe3, 0xb7, 0xdb, 0xfd, 0x14, 0x12, 0x2b, 0x45, 0x02,
  0x36, 0xa6, 0x0c, 0x33, 0x15, 0x16, 0xe8, 0xe0, 0x7c, 0x95, 0xe6, 0x95,
  0xf2, 0xc5, 0x0b, 0xee, 0x4a, 0x50, 0x08, 0xcb, 0xf2, 0x35, 0xee, 0xbb,
  0x24, 0x26, 0x0b, 0xd6, 0x3e, 0x81, 0x34, 0x6d, 0x4b, 0x98, 0xef, 0xb6,
  0x38, 0x0d, 0x1f, 0xe1, 0xcc, 0xc1, 0x23, 0xde, 0x35, 0xa3, 0xc3, 0xab,
  0xb9, 0x76, 0xd6, 0xba, 0x14, 0x9c, 0x03, 0x4c, 0xa1, 0xf5, 0x58, 0x53,
  0x63, 0xc2, 0xa2, 0x08, 0xc1, 0x0a, 0x59, 0x4c, 0xe6, 0xf3, 0x0c, 0x24,
  0x6e, 0xd8, 0x08, 0xb2, 0x39, 0xe3, 0xd6, 0xff, 0x1f, 0xd7, 0xb6, 0xe3,
  0xbd, 0x51, 0x47, 0xf6, 0x7f, 0x59, 0xb1, 0x44, 0x26, 0x38, 0x15, 0x16,
  0x25, 0x3a, 0xd5, 0xe7, 0x22, 0x5d, 0xfd, 0xc7, 0x00, 0x0b, 0x06, 0xc7,
  0xd5, 0x41, 0xfe, 0x67, 0x49, 0x19, 0x19, 0xe3, 0xeb, 0xff, 0xfb, 0x67,
  0x4e, 0xc3, 0x52, 0x37, 0xd8, 0x34, 0x2c, 0x01, 0xf8, 0x3b, 0x48, 0x05,
  0x4e, 0x47, 0x4c, 0xd9, 0xcb, 0x33, 0x79, 0x42, 0x02, 0x06, 0xe2, 0x4f,
  0xc6, 0x16, 0x3c, 0x4d, 0x0a, 0xf4, 0xe5, 0x05, 0x25, 0xce, 0x04, 0x1e,
  0x06, 0x9a, 0xc0, 0xbe, 0x46, 0x75, 0x43, 0x8f, 0xda, 0x57, 0x46, 0x69,
  0xcd, 0xb7, 0x58, 0x0e, 0xed, 0xb5, 0x42, 0x4d, 0x00, 0xa4, 0x63, 0xdf,
  0x10, 0xb2, 0x11, 0x53, 0xb4, 0x87, 0x48, 0x71, 0x95, 0x6c, 0x9f, 0x18,
  0x01, 0xd6, 0xc9, 0x87, 0xcd, 0x8b, 0x41, 0xab, 0x20, 0xac, 0xb1, 0x29,
  0xad, 0x24, 0xe5, 0x3c, 0x38, 0xd0, 0x6b, 0x9f, 0xa1, 0xef, 0x26, 0x7f,
  0xbf, 0xf3, 0x7b, 0x2e, 0xbd, 0x9f, 0xa5, 0x5b, 0x3e, 0x07, 0x7f, 0xfe,
  0x07, 0x11, 0xd7, 0x39, 0xed, 0x55, 0x5b, 0x56, 0x39, 0xb7, 0xe1, 0xac,
  0xed, 0x3d, 0x1e, 0x49, 0x28, 0x0a, 0x53, 0x32, 0x9a, 0xfb, 0xb9, 0xad,
  0xfa, 0xd7, 0x11, 0xc9, 0x11, 0x25, 0x5b, 0x3d, 0x21, 0x15, 0x02, 0x3c,
  0x4a, 0x92, 0x98, 0xd6, 0x35, 0xe8, 0x01, 0xbd, 0x19, 0x24, 0xe4, 0x56,
  0x02, 0xdc, 0xf2, 0xec, 0x0a, 0x2a, 0xb7, 0xea, 0x23, 0x2f, 0x63, 0x29,
  0xeb, 0x36, 0xc7, 0xed, 0xf0, 0x2f, 0x51, 0x19, 0x16, 0xba, 0x22, 0x20,
  0xd8, 0x4d, 0x36, 0x23, 0x09, 0xd0, 0x2f, 0x0f, 0x0e, 0x0f, 0x06, 0x6d,
  0x1e, 0xb8, 0x3e, 0x45, 0xe4, 0xe2, 0x0a, 0x38, 0x13, 0x48, 0xfb, 0x19,
  0x62, 0x52, 0x0d, 0x37, 0xc5, 0x30, 0x3a, 0x7f, 0xda, 0xde, 0xff, 0x5d,
  0xcb, 0x0c, 0x37, 0x18, 0x47, 0xed, 0xcb, 0x29, 0x6c, 0x7f, 0x1a, 0xbf,
  0xec, 0x5d, 0x67, 0x4c, 0x06, 0xd0, 0xf2, 0xd3, 0x29, 0x4d, 0xc5, 0xab,
  0xd8, 0xd1, 0xc2, 0xd8, 0xd0, 0x14, 0x6a, 0x08, 0xe3, 0x2f, 0x25, 0xda,
  0xb8, 0x6a, 0x5b, 0xd9, 0x3d, 0x13, 0x4f, 0xc6, 0x13, 0x24, 0xfa, 0x05,
  0x18, 0xe2, 0x51, 0x4c, 0x6d, 0x6e, 0x49, 0x41, 0xcc, 0x1f, 0x18, 0x71,
  0xdf, 0xcf, 0xce, 0xf8, 0x3a, 0xb0, 0x2a, 0xb9, 0xef, 0xdf, 0xb4, 0x73,
  0x12, 0x19, 0x0a, 0x4a, 0xb9, 0x93, 0xa4, 0x52, 0x5f, 0x08, 0x69, 0xab,
  0x9b, 0xb1, 0xfa, 0x3d, 0x45, 0xec, 0xcb, 0xd5, 0x7f, 0x20, 0xb5, 0xb0,
  0x06, 0x64, 0x65, 0xdc, 0xe2, 0x10, 0x04, 0xc8, 0xb7, 0x44, 0xa7, 0xda,
  0xef, 0x98, 0xfc, 0xbb, 0x42, 0x3d, 0x4d, 0x5b, 0xd9, 0xe2, 0xb7, 0xa3,
  0x67, 0x9b, 0x3c, 0x24, 0x4a, 0x09, 0x34, 0xf5, 0x66, 0x60, 0x07, 0xdc,
  0xff, 0x49, 0x4c, 0xed, 0x46, 0xff, 0xff, 0xff, 0x04, 0x00, 0x00, 0x00,
  0x80, 0x00, 0x00, 0x00, 0xea, 0xfe, 0xff, 0xff, 0xca, 0x07, 0x00, 0x00,
  0x8a, 0x05, 0x00, 0x00, 0x2d, 0xff, 0xff, 0xff, 0xbc, 0x06, 0x00, 0x00,
  0x90, 0x0a, 0x00, 0x00, 0x04, 0xfe, 0xff, 0xff, 0x86, 0xfd, 0xff, 0xff,
  0x10, 0x00, 0x00, 0x00, 0x42, 0x08, 0x00, 0x00, 0x91, 0x09, 0x00, 0x00,
  0x03, 0x00, 0x00, 0x00, 0x36, 0xfd, 0xff, 0xff, 0xf2, 0x0b, 0x00, 0x00,
  0x35, 0x00, 0x00, 0x00, 0x3e, 0x01, 0x00, 0x00, 0xa9, 0x05, 0x00, 0x00,
  0xd1, 0x01, 0x00, 0x00, 0x1c, 0xff, 0xff, 0xff, 0x59, 0x06, 0x00, 0x00,
  0x51, 0x05, 0x00, 0x00, 0xdb, 0x07, 0x00, 0x00, 0x40, 0xff, 0xff, 0xff,
  0xb7, 0x07, 0x00, 0x00, 0xa8, 0xfd, 0xff, 0xff, 0x8c, 0xff, 0xff, 0xff,
  0x65, 0x0a, 0x00, 0x00, 0xdc, 0x00, 0x00, 0x00, 0xae, 0xff, 0xff, 0xff,
  0x3a, 0x0a, 0x00, 0x00, 0xcf, 0x07, 0x00, 0x00, 0xf8, 0xfc, 0xff, 0xff,
  0xd2, 0xff, 0xff, 0xff, 0x04, 0x00, 0x00, 0x00, 0x20, 0x00, 0x00, 0x00,
  0x1d, 0xdc, 0xe2, 0x3e, 0x9a, 0xcf, 0x22, 0x22, 0x1d, 0x81, 0x86, 0x3b,
  0x1f, 0xac, 0xda, 0xdc, 0xad, 0x72, 0x2f, 0x92, 0xa4, 0xab, 0x2a, 0xcf,
  0x2c, 0x43, 0xcf, 0xd0, 0x40, 0xd6, 0x9a, 0x5c, 0x00, 0x00, 0x06, 0x00,
  0x08, 0x00, 0x04, 0x00, 0x06, 0x00, 0x00, 0x00, 0x04, 0x00, 0x00, 0x00,
  0x04, 0x00, 0x00, 0x00, 0x57, 0xff, 0xff, 0xff, 0x54, 0xff, 0xff, 0xff,
  0x58, 0xff, 0xff, 0xff, 0x0f, 0x00, 0x00, 0x00, 0x4d, 0x4c, 0x49, 0x52,
  0x20, 0x43, 0x6f, 0x6e, 0x76, 0x65, 0x72, 0x74, 0x65, 0x64, 0x2e, 0x00,
  0x01, 0x00, 0x00, 0x00, 0x14, 0x00, 0x00, 0x00, 0x00, 0x00, 0x0e, 0x00,
  0x18, 0x00, 0x14, 0x00, 0x10, 0x00, 0x0c, 0x00, 0x08, 0x00, 0x04, 0x00,
  0x0e, 0x00, 0x00, 0x00, 0x14, 0x00, 0x00, 0x00, 0x1c, 0x00, 0x00, 0x00,
  0x1c, 0x01, 0x00, 0x00, 0x20, 0x01, 0x00, 0x00, 0x24, 0x01, 0x00, 0x00,
  0x04, 0x00, 0x00, 0x00, 0x6d, 0x61, 0x69, 0x6e, 0x00, 0x00, 0x00, 0x00,
  0x04, 0x00, 0x00, 0x00, 0xc4, 0x00, 0x00, 0x00, 0x7c, 0x00, 0x00, 0x00,
  0x34, 0x00, 0x00, 0x00, 0x10, 0x00, 0x00, 0x00, 0x00, 0x00, 0x0a, 0x00,
  0x10, 0x00, 0x0c, 0x00, 0x08, 0x00, 0x04, 0x00, 0x0a, 0x00, 0x00, 0x00,
  0x0c, 0x00, 0x00, 0x00, 0x10, 0x00, 0x00, 0x00, 0x01, 0x00, 0x00, 0x00,
  0x01, 0x00, 0x00, 0x00, 0x0a, 0x00, 0x00, 0x00, 0x01, 0x00, 0x00, 0x00,
  0x09, 0x00, 0x00, 0x00, 0xca, 0xff, 0xff, 0xff, 0x14, 0x00, 0x00, 0x00,
  0x00, 0x00, 0x00, 0x08, 0x10, 0x00, 0x00, 0x00, 0x14, 0x00, 0x00, 0x00,
  0x04, 0x00, 0x04, 0x00, 0x04, 0x00, 0x00, 0x00, 0x01, 0x00, 0x00, 0x00,
  0x09, 0x00, 0x00, 0x00, 0x03, 0x00, 0x00, 0x00, 0x08, 0x00, 0x00, 0x00,
  0x02, 0x00, 0x00, 0x00, 0x01, 0x00, 0x00, 0x00, 0x00, 0x00, 0x0e, 0x00,
  0x14, 0x00, 0x00, 0x00, 0x10, 0x00, 0x0c, 0x00, 0x0b, 0x00, 0x04, 0x00,
  0x0e, 0x00, 0x00, 0x00, 0x10, 0x00, 0x00, 0x00, 0x00, 0x00, 0x00, 0x08,
  0x10, 0x00, 0x00, 0x00, 0x14, 0x00, 0x00, 0x00, 0xba, 0xff, 0xff, 0xff,
  0x00, 0x00, 0x00, 0x01, 0x01, 0x00, 0x00, 0x00, 0x08, 0x00, 0x00, 0x00,
  0x03, 0x00, 0x00, 0x00, 0x07, 0x00, 0x00, 0x00, 0x04, 0x00, 0x00, 0x00,
  0x03, 0x00, 0x00, 0x00, 0x00, 0x00, 0x0e, 0x00, 0x16, 0x00, 0x00, 0x00,
  0x10, 0x00, 0x0c, 0x00, 0x0b, 0x00, 0x04, 0x00, 0x0e, 0x00, 0x00, 0x00,
  0x18, 0x00, 0x00, 0x00, 0x00, 0x00, 0x00, 0x08, 0x18, 0x00, 0x00, 0x00,
  0x1c, 0x00, 0x00, 0x00, 0x00, 0x00, 0x06, 0x00, 0x08, 0x00, 0x07, 0x00,
  0x06, 0x00, 0x00, 0x00, 0x00, 0x00, 0x00, 0x01, 0x01, 0x00, 0x00, 0x00,
  0x07, 0x00, 0x00, 0x00, 0x03, 0x00, 0x00, 0x00, 0x00, 0x00, 0x00, 0x00,
  0x06, 0x00, 0x00, 0x00, 0x05, 0x00, 0x00, 0x00, 0x01, 0x00, 0x00, 0x00,
  0x0a, 0x00, 0x00, 0x00, 0x01, 0x00, 0x00, 0x00, 0x00, 0x00, 0x00, 0x00,
  0x0b, 0x00, 0x00, 0x00, 0x58, 0x0e, 0x00, 0x00, 0xe0, 0x0d, 0x00, 0x00,
  0x64, 0x0d, 0x00, 0x00, 0x90, 0x0b, 0x00, 0x00, 0xb4, 0x09, 0x00, 0x00,
  0x60, 0x06, 0x00, 0x00, 0x04, 0x03, 0x00, 0x00, 0x20, 0x02, 0x00, 0x00,
  0x3c, 0x01, 0x00, 0x00, 0x80, 0x00, 0x00, 0x00, 0x04, 0x00, 0x00, 0x00,
  0xea, 0xf1, 0xff, 0xff, 0x00, 0x00, 0x00, 0x01, 0x18, 0x00, 0x00, 0x00,
  0x20, 0x00, 0x00, 0x00, 0x3c, 0x00, 0x00, 0x00, 0x0b, 0x00, 0x00, 0x00,
  0x00, 0x00, 0x00, 0x09, 0x50, 0x00, 0x00, 0x00, 0x02, 0x00, 0x00, 0x00,
  0xff, 0xff, 0xff, 0xff, 0x01, 0x00, 0x00, 0x00, 0xd4, 0xf1, 0xff, 0xff,
  0x08, 0x00, 0x00, 0x00, 0x10, 0x00, 0x00, 0x00, 0x01, 0x00, 0x00, 0x00,
  0x80, 0xff, 0xff, 0xff, 0xff, 0xff, 0xff, 0xff, 0x01, 0x00, 0x00, 0x00,
  0x00, 0x00, 0x80, 0x3b, 0x1b, 0x00, 0x00, 0x00, 0x53, 0x74, 0x61, 0x74,
  0x65, 0x66, 0x75, 0x6c, 0x50, 0x61, 0x72, 0x74, 0x69, 0x74, 0x69, 0x6f,
  0x6e, 0x65, 0x64, 0x43, 0x61, 0x6c, 0x6c, 0x5f, 0x31, 0x3a, 0x30, 0x00,
  0x02, 0x00, 0x00, 0x00, 0x01, 0x00, 0x00, 0x00, 0x01, 0x00, 0x00, 0x00,
  0x62, 0xf2, 0xff, 0xff, 0x00, 0x00, 0x00, 0x01, 0x18, 0x00, 0x00, 0x00,
  0x20, 0x00, 0x00, 0x00, 0x40, 0x00, 0x00, 0x00, 0x0a, 0x00, 0x00, 0x00,
  0x00, 0x00, 0x00, 0x09, 0x90, 0x00, 0x00, 0x00, 0x02, 0x00, 0x00, 0x00,
  0xff, 0xff, 0xff, 0xff, 0x01, 0x00, 0x00, 0x00, 0x4c, 0xf2, 0xff, 0xff,
  0x08, 0x00, 0x00, 0x00, 0x14, 0x00, 0x00, 0x00, 0x01, 0x00, 0x00, 0x00,
  0x1c, 0x00, 0x00, 0x00, 0x00, 0x00, 0x00, 0x00, 0x00, 0x00, 0x00, 0x00,
  0x01, 0x00, 0x00, 0x00, 0xfb, 0xea, 0x74, 0x3e, 0x54, 0x00, 0x00, 0x00,
  0x62, 0x72, 0x69, 0x64, 0x67, 0x65, 0x5f, 0x68, 0x65, 0x61, 0x6c, 0x74,
  0x68, 0x5f, 0x63, 0x6c, 0x61, 0x73, 0x73, 0x69, 0x66, 0x69, 0x65, 0x72,
  0x5f, 0x31, 0x2f, 0x64, 0x65, 0x6e, 0x73, 0x65, 0x5f, 0x32, 0x5f, 0x31,
  0x2f, 0x4d, 0x61, 0x74, 0x4d, 0x75, 0x6c, 0x3b, 0x62, 0x72, 0x69, 0x64,
  0x67, 0x65, 0x5f, 0x68, 0x65, 0x61, 0x6c, 0x74, 0x68, 0x5f, 0x63, 0x6c,
  0x61, 0x73, 0x73, 0x69, 0x66, 0x69, 0x65, 0x72, 0x5f, 0x31, 0x2f, 0x64,
  0x65, 0x6e, 0x73, 0x65, 0x5f, 0x32, 0x5f, 0x31, 0x2f, 0x41, 0x64, 0x64,
  0x00, 0x00, 0x00, 0x00, 0x02, 0x00, 0x00, 0x00, 0x01, 0x00, 0x00, 0x00,
  0x01, 0x00, 0x00, 0x00, 0x1a, 0xf3, 0xff, 0xff, 0x00, 0x00, 0x00, 0x01,
  0x18, 0x00, 0x00, 0x00, 0x20, 0x00, 0x00, 0x00, 0x3c, 0x00, 0x00, 0x00,
  0x09, 0x00, 0x00, 0x00, 0x00, 0x00, 0x00, 0x09, 0xb8, 0x00, 0x00, 0x00,
  0x02, 0x00, 0x00, 0x00, 0xff, 0xff, 0xff, 0xff, 0x20, 0x00, 0x00, 0x00,
  0x04, 0xf3, 0xff, 0xff, 0x08, 0x00, 0x00, 0x00, 0x10, 0x00, 0x00, 0x00,
  0x01, 0x00, 0x00, 0x00, 0x80, 0xff, 0xff, 0xff, 0xff, 0xff, 0xff, 0xff,
  0x01, 0x00, 0x00, 0x00, 0x13, 0x58, 0x45, 0x3d, 0x82, 0x00, 0x00, 0x00,
  0x62, 0x72, 0x69, 0x64, 0x67, 0x65, 0x5f, 0x68, 0x65, 0x61, 0x6c, 0x74,
  0x68, 0x5f, 0x63, 0x6c, 0x61, 0x73, 0x73, 0x69, 0x66, 0x69, 0x65, 0x72,
  0x5f, 0x31, 0x2f, 0x64, 0x65, 0x6e, 0x73, 0x65, 0x5f, 0x31, 0x5f, 0x32,
  0x2f, 0x4d, 0x61, 0x74, 0x4d, 0x75, 0x6c, 0x3b, 0x62, 0x72, 0x69, 0x64,
  0x67, 0x65, 0x5f, 0x68, 0x65, 0x61, 0x6c, 0x74, 0x68, 0x5f, 0x63, 0x6c,
  0x61, 0x73, 0x73, 0x69, 0x66, 0x69, 0x65, 0x72, 0x5f, 0x31, 0x2f, 0x64,
  0x65, 0x6e, 0x73, 0x65, 0x5f, 0x31, 0x5f, 0x32, 0x2f, 0x52, 0x65, 0x6c,
  0x75, 0x3b, 0x62, 0x72, 0x69, 0x64, 0x67, 0x65, 0x5f, 0x68, 0x65, 0x61,
  0x6c, 0x74, 0x68, 0x5f, 0x63, 0x6c, 0x61, 0x73, 0x73, 0x69, 0x66, 0x69,
  0x65, 0x72, 0x5f, 0x31, 0x2f, 0x64, 0x65, 0x6e, 0x73, 0x65, 0x5f, 0x31,
  0x5f, 0x32, 0x2f, 0x42, 0x69, 0x61, 0x73, 0x41, 0x64, 0x64, 0x00, 0x00,
  0x02, 0x00, 0x00, 0x00, 0x01, 0x00, 0x00, 0x00, 0x20, 0x00, 0x00, 0x00,
  0xfa, 0xf3, 0xff, 0xff, 0x00, 0x00, 0x00, 0x01, 0x18, 0x00, 0x00, 0x00,
  0x20, 0x00, 0x00, 0x00, 0x40, 0x00, 0x00, 0x00, 0x08, 0x00, 0x00, 0x00,
  0x00, 0x00, 0x00, 0x09, 0xb8, 0x00, 0x00, 0x00, 0x02, 0x00, 0x00, 0x00,
  0xff, 0xff, 0xff, 0xff, 0x40, 0x00, 0x00, 0x00, 0xe4, 0xf3, 0xff, 0xff,
  0x08, 0x00, 0x00, 0x00, 0x14, 0x00, 0x00, 0x00, 0x01, 0x00, 0x00, 0x00,
  0x80, 0xff, 0xff, 0xff, 0xff, 0xff, 0xff, 0xff, 0x00, 0x00, 0x00, 0x00,
  0x01, 0x00, 0x00, 0x00, 0x10, 0x89, 0xad, 0x3c, 0x7c, 0x00, 0x00, 0x00,
  0x62, 0x72, 0x69, 0x64, 0x67, 0x65, 0x5f, 0x68, 0x65, 0x61, 0x6c, 0x74,
  0x68, 0x5f, 0x63, 0x6c, 0x61, 0x73, 0x73, 0x69, 0x66, 0x69, 0x65, 0x72,
  0x5f, 0x31, 0x2f, 0x64, 0x65, 0x6e, 0x73, 0x65, 0x5f, 0x31, 0x2f, 0x4d,
  0x61, 0x74, 0x4d, 0x75, 0x6c, 0x3b, 0x62, 0x72, 0x69, 0x64, 0x67, 0x65,
  0x5f, 0x68, 0x65, 0x61, 0x6c, 0x74, 0x68, 0x5f, 0x63, 0x6c, 0x61, 0x73,
  0x73, 0x69, 0x66, 0x69, 0x65, 0x72, 0x5f, 0x31, 0x2f, 0x64, 0x65, 0x6e,
  0x73, 0x65, 0x5f, 0x31, 0x2f, 0x52, 0x65, 0x6c, 0x75, 0x3b, 0x62, 0x72,
  0x69, 0x64, 0x67, 0x65, 0x5f, 0x68, 0x65, 0x61, 0x6c, 0x74, 0x68, 0x5f,
  0x63, 0x6c, 0x61, 0x73, 0x73, 0x69, 0x66, 0x69, 0x65, 0x72, 0x5f, 0x31,
  0x2f, 0x64, 0x65, 0x6e, 0x73, 0x65, 0x5f, 0x31, 0x2f, 0x42, 0x69, 0x61,
  0x73, 0x41, 0x64, 0x64, 0x00, 0x00, 0x00, 0x00, 0x02, 0x00, 0x00, 0x00,
  0x01, 0x00, 0x00, 0x00, 0x40, 0x00, 0x00, 0x00, 0x4e, 0xf5, 0xff, 0xff,
  0x00, 0x00, 0x00, 0x01, 0x14, 0x00, 0x00, 0x00, 0x28, 0x03, 0x00, 0x00,
  0x07, 0x00, 0x00, 0x00, 0x00, 0x00, 0x00, 0x09, 0x34, 0x03, 0x00, 0x00,
  0xb4, 0xf4, 0xff, 0xff, 0x08, 0x00, 0x00, 0x00, 0x0c, 0x02, 0x00, 0x00,
  0x40, 0x00, 0x00, 0x00, 0x00, 0x00, 0x00, 0x00, 0x00, 0x00, 0x00, 0x00,
  0x00, 0x00, 0x00, 0x00, 0x00, 0x00, 0x00, 0x00, 0x00, 0x00, 0x00, 0x00,
  0x00, 0x00, 0x00, 0x00, 0x00, 0x00, 0x00, 0x00, 0x00, 0x00, 0x00, 0x00,
  0x00, 0x00, 0x00, 0x00, 0x00, 0x00, 0x00, 0x00, 0x00, 0x00, 0x00, 0x00,
  0x00, 0x00, 0x00, 0x00, 0x00, 0x00, 0x00, 0x00, 0x00, 0x00, 0x00, 0x00,
  0x00, 0x00, 0x00, 0x00, 0x00, 0x00, 0x00, 0x00, 0x00, 0x00, 0x00, 0x00,
  0x00, 0x00, 0x00, 0x00, 0x00, 0x00, 0x00, 0x00, 0x00, 0x00, 0x00, 0x00,
  0x00, 0x00, 0x00, 0x00, 0x00, 0x00, 0x00, 0x00, 0x00, 0x00, 0x00, 0x00,
  0x00, 0x00, 0x00, 0x00, 0x00, 0x00, 0x00, 0x00, 0x00, 0x00, 0x00, 0x00,
  0x00, 0x00, 0x00, 0x00, 0x00, 0x00, 0x00, 0x00, 0x00, 0x00, 0x00, 0x00,
  0x00, 0x00, 0x00, 0x00, 0x00, 0x00, 0x00, 0x00, 0x00, 0x00, 0x00, 0x00,
  0x00, 0x00, 0x00, 0x00, 0x00, 0x00, 0x00, 0x00, 0x00, 0x00, 0x00, 0x00,
  0x00, 0x00, 0x00, 0x00, 0x00, 0x00, 0x00, 0x00, 0x00, 0x00, 0x00, 0x00,
  0x00, 0x00, 0x00, 0x00, 0x00, 0x00, 0x00, 0x00, 0x00, 0x00, 0x00, 0x00,
  0x00, 0x00, 0x00, 0x00, 0x00, 0x00, 0x00, 0x00, 0x00, 0x00, 0x00, 0x00,
  0x00, 0x00, 0x00, 0x00, 0x00, 0x00, 0x00, 0x00, 0x00, 0x00, 0x00, 0x00,
  0x00, 0x00, 0x00, 0x00, 0x00, 0x00, 0x00, 0x00, 0x00, 0x00, 0x00, 0x00,
  0x00, 0x00, 0x00, 0x00, 0x00, 0x00, 0x00, 0x00, 0x00, 0x00, 0x00, 0x00,
  0x00, 0x00, 0x00, 0x00, 0x00, 0x00, 0x00, 0x00, 0x00, 0x00, 0x00, 0x00,
  0x00, 0x00, 0x00, 0x00, 0x00, 0x00, 0x00, 0x00, 0x00, 0x00, 0x00, 0x00,
  0x00, 0x00, 0x00, 0x00, 0x00, 0x00, 0x00, 0x00, 0x00, 0x00, 0x00, 0x00,
  0x00, 0x00, 0x00, 0x00, 0x00, 0x00, 0x00, 0x00, 0x00, 0x00, 0x00, 0x00,
  0x00, 0x00, 0x00, 0x00, 0x00, 0x00, 0x00, 0x00, 0x00, 0x00, 0x00, 0x00,
  0x00, 0x00, 0x00, 0x00, 0x00, 0x00, 0x00, 0x00, 0x00, 0x00, 0x00, 0x00,
  0x00, 0x00, 0x00, 0x00, 0x00, 0x00, 0x00, 0x00, 0x00, 0x00, 0x00, 0x00,
  0x00, 0x00, 0x00, 0x00, 0x00, 0x00, 0x00, 0x00, 0x00, 0x00, 0x00, 0x00,
  0x00, 0x00, 0x00, 0x00, 0x00, 0x00, 0x00, 0x00, 0x00, 0x00, 0x00, 0x00,
  0x00, 0x00, 0x00, 0x00, 0x00, 0x00, 0x00, 0x00, 0x00, 0x00, 0x00, 0x00,
  0x00, 0x00, 0x00, 0x00, 0x00, 0x00, 0x00, 0x00, 0x00, 0x00, 0x00, 0x00,
  0x00, 0x00, 0x00, 0x00, 0x00, 0x00, 0x00, 0x00, 0x00, 0x00, 0x00, 0x00,
  0x00, 0x00, 0x00, 0x00, 0x00, 0x00, 0x00, 0x00, 0x00, 0x00, 0x00, 0x00,
  0x00, 0x00, 0x00, 0x00, 0x00, 0x00, 0x00, 0x00, 0x00, 0x00, 0x00, 0x00,
  0x00, 0x00, 0x00, 0x00, 0x00, 0x00, 0x00, 0x00, 0x00, 0x00, 0x00, 0x00,
  0x00, 0x00, 0x00, 0x00, 0x00, 0x00, 0x00, 0x00, 0x00, 0x00, 0x00, 0x00,
  0x00, 0x00, 0x00, 0x00, 0x00, 0x00, 0x00, 0x00, 0x00, 0x00, 0x00, 0x00,
  0x00, 0x00, 0x00, 0x00, 0x00, 0x00, 0x00, 0x00, 0x00, 0x00, 0x00, 0x00,
  0x00, 0x00, 0x00, 0x00, 0x00, 0x00, 0x00, 0x00, 0x00, 0x00, 0x00, 0x00,
  0x00, 0x00, 0x00, 0x00, 0x00, 0x00, 0x00, 0x00, 0x00, 0x00, 0x00, 0x00,
  0x00, 0x00, 0x00, 0x00, 0x00, 0x00, 0x00, 0x00, 0x00, 0x00, 0x00, 0x00,
  0x00, 0x00, 0x00, 0x00, 0x00, 0x00, 0x00, 0x00, 0x00, 0x00, 0x00, 0x00,
  0x00, 0x00, 0x00, 0x00, 0x00, 0x00, 0x00, 0x00, 0x00, 0x00, 0x00, 0x00,
  0x00, 0x00, 0x00, 0x00, 0x00, 0x00, 0x00, 0x00, 0x00, 0x00, 0x00, 0x00,
  0x00, 0x00, 0x00, 0x00, 0x00, 0x00, 0x00, 0x00, 0x00, 0x00, 0x00, 0x00,
  0x00, 0x00, 0x00, 0x00, 0x40, 0x00, 0x00, 0x00, 0x86, 0x3d, 0x49, 0x3b,
  0x1b, 0x4b, 0x35, 0x3b, 0xda, 0xae, 0x5a, 0x3b, 0xe6, 0x4f, 0x34, 0x3b,
  0xae, 0x88, 0xfa, 0x3a, 0xdb, 0x9d, 0x4b, 0x3b, 0x37, 0x67, 0x01, 0x3b,
  0x0f, 0x49, 0x13, 0x3b, 0x3c, 0xd0, 0x2d, 0x3b, 0x3a, 0x5c, 0x2d, 0x3b,
  0x1e, 0xdd, 0x39, 0x3b, 0xa3, 0x95, 0x0a, 0x3b, 0xd5, 0x69, 0x30, 0x3b,
  0xcf, 0xc0, 0xf9, 0x3a, 0xfe, 0xa5, 0x10, 0x3b, 0x19, 0x18, 0xf0, 0x3a,
  0xbb, 0x01, 0x0f, 0x3b, 0x47, 0x7f, 0x27, 0x3b, 0xf4, 0x66, 0xe1, 0x3a,
  0x9b, 0x63, 0x3a, 0x3b, 0xf5, 0xc2, 0x25, 0x3b, 0xb1, 0xcc, 0x01, 0x3b,
  0x30, 0x79, 0xf2, 0x3a, 0x1a, 0x98, 0x0f, 0x3b, 0x19, 0x7c, 0xd4, 0x3a,
  0xa5, 0xe3, 0x36, 0x3b, 0xcb, 0xde, 0xe1, 0x3a, 0x6a, 0x8e, 0x2a, 0x3b,
  0x3a, 0xb9, 0xea, 0x3a, 0xf5, 0xb7, 0x03, 0x3b, 0x44, 0xa0, 0xea, 0x3a,
  0x01, 0x8b, 0x35, 0x3b, 0xe7, 0x41, 0x14, 0x3b, 0x9f, 0x1d, 0x25, 0x3b,
  0xbd, 0x20, 0x05, 0x3b, 0x5a, 0x59, 0x05, 0x3b, 0x85, 0xd0, 0x57, 0x3b,
  0x28, 0xa5, 0x11, 0x3b, 0xd7, 0x2e, 0xed, 0x3a, 0x65, 0x24, 0xe8, 0x3a,
  0x87, 0x1b, 0xe4, 0x3a, 0xe1, 0xf1, 0x3f, 0x3b, 0xf2, 0x9f, 0xd7, 0x3a,
  0x6a, 0x0c, 0x13, 0x3b, 0xd0, 0x8b, 0x3b, 0x3b, 0xc2, 0xaf, 0x0c, 0x3b,
  0xca, 0x91, 0x34, 0x3b, 0x72, 0x28, 0x09, 0x3b, 0x2f, 0x1d, 0x4f, 0x3b,
  0x90, 0x4f, 0x58, 0x3b, 0x44, 0x5e, 0x27, 0x3b, 0xa8, 0x86, 0x3b, 0x3b,
  0x65, 0xf3, 0xd1, 0x3a, 0x59, 0x4e, 0xfa, 0x3a, 0x98, 0xdb, 0x30, 0x3b,
  0xe2, 0x17, 0x0d, 0x3b, 0x5a, 0xec, 0x5f, 0x3b, 0xa2, 0x6b, 0x35, 0x3b,
  0x86, 0x16, 0x3f, 0x3b, 0x4d, 0xc6, 0xee, 0x3a, 0x4d, 0x17, 0x26, 0x3b,
  0xc4, 0x1f, 0x32, 0x3b, 0xbf, 0x86, 0x1e, 0x3b, 0xb1, 0xcc, 0x28, 0x3b,
  0x12, 0x00, 0x00, 0x00, 0x74, 0x66, 0x6c, 0x2e, 0x70, 0x73, 0x65, 0x75,
  0x64, 0x6f, 0x5f, 0x71, 0x63, 0x6f, 0x6e, 0x73, 0x74, 0x35, 0x00, 0x00,
  0x02, 0x00, 0x00, 0x00, 0x40, 0x00, 0x00, 0x00, 0x60, 0x00, 0x00, 0x00,
  0xa6, 0xf8, 0xff, 0xff, 0x00, 0x00, 0x00, 0x01, 0x14, 0x00, 0x00, 0x00,
  0x24, 0x03, 0x00, 0x00, 0x06, 0x00, 0x00, 0x00, 0x00, 0x00, 0x00, 0x02,
  0x30, 0x03, 0x00, 0x00, 0x0c, 0xf8, 0xff, 0xff, 0x08, 0x00, 0x00, 0x00,
  0x08, 0x02, 0x00, 0x00, 0x40, 0x00, 0x00, 0x00, 0x00, 0x00, 0x00, 0x00,
  0x00, 0x00, 0x00, 0x00, 0x00, 0x00, 0x00, 0x00, 0x00, 0x00, 0x00, 0x00,
  0x00, 0x00, 0x00, 0x00, 0x00, 0x00, 0x00, 0x00, 0x00, 0x00, 0x00, 0x00,
  0x00, 0x00, 0x00, 0x00, 0x00, 0x00, 0x00, 0x00, 0x00, 0x00, 0x00, 0x00,
  0x00, 0x00, 0x00, 0x00, 0x00, 0x00, 0x00, 0x00, 0x00, 0x00, 0x00, 0x00,
  0x00, 0x00, 0x00, 0x00, 0x00, 0x00, 0x00, 0x00, 0x00, 0x00, 0x00, 0x00,
  0x00, 0x00, 0x00, 0x00, 0x00, 0x00, 0x00, 0x00, 0x00, 0x00, 0x00, 0x00,
  0x00, 0x00, 0x00, 0x00, 0x00, 0x00, 0x00, 0x00, 0x00, 0x00, 0x00, 0x00,
  0x00, 0x00, 0x00, 0x00, 0x00, 0x00, 0x00, 0x00, 0x00, 0x00, 0x00, 0x00,
  0x00, 0x00, 0x00, 0x00, 0x00, 0x00, 0x00, 0x00, 0x00, 0x00, 0x00, 0x00,
  0x00, 0x00, 0x00, 0x00, 0x00, 0x00, 0x00, 0x00, 0x00, 0x00, 0x00, 0x00,
  0x00, 0x00, 0x00, 0x00, 0x00, 0x00, 0x00, 0x00, 0x00, 0x00, 0x00, 0x00,
  0x00, 0x00, 0x00, 0x00, 0x00, 0x00, 0x00, 0x00, 0x00, 0x00, 0x00, 0x00,
  0x00, 0x00, 0x00, 0x00, 0x00, 0x00, 0x00, 0x00, 0x00, 0x00, 0x00, 0x00,
  0x00, 0x00, 0x00, 0x00, 0x00, 0x00, 0x00, 0x00, 0x00, 0x00, 0x00, 0x00,
  0x00, 0x00, 0x00, 0x00, 0x00, 0x00, 0x00, 0x00, 0x00, 0x00, 0x00, 0x00,
  0x00, 0x00, 0x00, 0x00, 0x00, 0x00, 0x00, 0x00, 0x00, 0x00, 0x00, 0x00,
  0x00, 0x00, 0x00, 0x00, 0x00, 0x00, 0x00, 0x00, 0x00, 0x00, 0x00, 0x00,
  0x00, 0x00, 0x00, 0x00, 0x00, 0x00, 0x00, 0x00, 0x00, 0x00, 0x00, 0x00,
  0x00, 0x00, 0x00, 0x00, 0x00, 0x00, 0x00, 0x00, 0x00, 0x00, 0x00, 0x00,
  0x00, 0x00, 0x00, 0x00, 0x00, 0x00, 0x00, 0x00, 0x00, 0x00, 0x00, 0x00,
  0x00, 0x00, 0x00, 0x00, 0x00, 0x00, 0x00, 0x00, 0x00, 0x00, 0x00, 0x00,
  0x00, 0x00, 0x00, 0x00, 0x00, 0x00, 0x00, 0x00, 0x00, 0x00, 0x00, 0x00,
  0x00, 0x00, 0x00, 0x00, 0x00, 0x00, 0x00, 0x00, 0x00, 0x00, 0x00, 0x00,
  0x00, 0x00, 0x00, 0x00, 0x00, 0x00, 0x00, 0x00, 0x00, 0x00, 0x00, 0x00,
  0x00, 0x00, 0x00, 0x00, 0x00, 0x00, 0x00, 0x00, 0x00, 0x00, 0x00, 0x00,
  0x00, 0x00, 0x00, 0x00, 0x00, 0x00, 0x00, 0x00, 0x00, 0x00, 0x00, 0x00,
  0x00, 0x00, 0x00, 0x00, 0x00, 0x00, 0x00, 0x00, 0x00, 0x00, 0x00, 0x00,
  0x00, 0x00, 0x00, 0x00, 0x00, 0x00, 0x00, 0x00, 0x00, 0x00, 0x00, 0x00,
  0x00, 0x00, 0x00, 0x00, 0x00, 0x00, 0x00, 0x00, 0x00, 0x00, 0x00, 0x00,
  0x00, 0x00, 0x00, 0x00, 0x00, 0x00, 0x00, 0x00, 0x00, 0x00, 0x00, 0x00,
  0x00, 0x00, 0x00, 0x00, 0x00, 0x00, 0x00, 0x00, 0x00, 0x00, 0x00, 0x00,
  0x00, 0x00, 0x00, 0x00, 0x00, 0x00, 0x00, 0x00, 0x00, 0x00, 0x00, 0x00,
  0x00, 0x00, 0x00, 0x00, 0x00, 0x00, 0x00, 0x00, 0x00, 0x00, 0x00, 0x00,
  0x00, 0x00, 0x00, 0x00, 0x00, 0x00, 0x00, 0x00, 0x00, 0x00, 0x00, 0x00,
  0x00, 0x00, 0x00, 0x00, 0x00, 0x00, 0x00, 0x00, 0x00, 0x00, 0x00, 0x00,
  0x00, 0x00, 0x00, 0x00, 0x00, 0x00, 0x00, 0x00, 0x00, 0x00, 0x00, 0x00,
  0x00, 0x00, 0x00, 0x00, 0x00, 0x00, 0x00, 0x00, 0x00, 0x00, 0x00, 0x00,
  0x00, 0x00, 0x00, 0x00, 0x00, 0x00, 0x00, 0x00, 0x00, 0x00, 0x00, 0x00,
  0x00, 0x00, 0x00, 0x00, 0x00, 0x00, 0x00, 0x00, 0x00, 0x00, 0x00, 0x00,
  0x00, 0x00, 0x00, 0x00, 0x00, 0x00, 0x00, 0x00, 0x00, 0x00, 0x00, 0x00,
  0x00, 0x00, 0x00, 0x00, 0x00, 0x00, 0x00, 0x00, 0x00, 0x00, 0x00, 0x00,
  0x00, 0x00, 0x00, 0x00, 0x00, 0x00, 0x00, 0x00, 0x00, 0x00, 0x00, 0x00,
  0x00, 0x00, 0x00, 0x00, 0x40, 0x00, 0x00, 0x00, 0x46, 0x57, 0x0c, 0x39,
  0x52, 0xdc, 0xfc, 0x38, 0x4d, 0x81, 0x18, 0x39, 0xf3, 0x7d, 0xfb, 0x38,
  0x9d, 0xb7, 0xae, 0x38, 0x83, 0xff, 0x0d, 0x39, 0x7e, 0x7c, 0xb4, 0x38,
  0x7b, 0x6d, 0xcd, 0x38, 0x89, 0x6d, 0xf2, 0x38, 0xbc, 0xcb, 0xf1, 0x38,
  0x1a, 0x9e, 0x01, 0x39, 0xc3, 0x4a, 0xc1, 0x38, 0xe3, 0x0d, 0xf6, 0x38,
  0x3b, 0x2c, 0xae, 0x38, 0xed, 0xbf, 0xc9, 0x38, 0xd0, 0x6f, 0xa7, 0x38,
  0xc3, 0x75, 0xc7, 0x38, 0x45, 0x9e, 0xe9, 0x38, 0xdd, 0x30, 0x9d, 0x38,
  0xe4, 0xfb, 0x01, 0x39, 0x8d, 0x32, 0xe7, 0x38, 0x07, 0x0a, 0xb5, 0x38,
  0x94, 0x18, 0xa9, 0x38, 0x7e, 0x47, 0xc8, 0x38, 0xbb, 0x2e, 0x94, 0x38,
  0x22, 0x16, 0xff, 0x38, 0x70, 0x84, 0x9d, 0x38, 0x8f, 0xe2, 0xed, 0x38,
  0x01, 0xb1, 0xa3, 0x38, 0x39, 0xb7, 0xb7, 0x38, 0x99, 0x9f, 0xa3, 0x38,
  0x72, 0x35, 0xfd, 0x38, 0x8f, 0xc8, 0xce, 0x38, 0xf2, 0x4b, 0xe6, 0x38,
  0x6d, 0xae, 0xb9, 0x38, 0x63, 0xfd, 0xb9, 0x38, 0x31, 0x81, 0x16, 0x39,
  0xd1, 0x23, 0xcb, 0x38, 0x15, 0x68, 0xa5, 0x38, 0x27, 0xe4, 0xa1, 0x38,
  0xda, 0x13, 0x9f, 0x38, 0xc2, 0xdb, 0x05, 0x39, 0x52, 0x5f, 0x96, 0x38,
  0xe6, 0x18, 0xcd, 0x38, 0x76, 0xca, 0x02, 0x39, 0x50, 0x39, 0xc4, 0x38,
  0xd9, 0xd9, 0xfb, 0x38, 0x69, 0x4d, 0xbf, 0x38, 0xe5, 0x6f, 0x10, 0x39,
  0xca, 0xd9, 0x16, 0x39, 0x3a, 0x70, 0xe9, 0x38, 0xdd, 0xc6, 0x02, 0x39,
  0x57, 0x6a, 0x92, 0x38, 0xf0, 0x8e, 0xae, 0x38, 0x8e, 0xac, 0xf6, 0x38,
  0x8b, 0xca, 0xc4, 0x38, 0xd6, 0x28, 0x1c, 0x39, 0xb0, 0x09, 0xfd, 0x38,
  0xc8, 0x42, 0x05, 0x39, 0x3d, 0x84, 0xa6, 0x38, 0x31, 0xa8, 0xe7, 0x38,
  0xb2, 0x70, 0xf8, 0x38, 0x2a, 0x1b, 0xdd, 0x38, 0x4e, 0x6f, 0xeb, 0x38,
  0x12, 0x00, 0x00, 0x00, 0x74, 0x66, 0x6c, 0x2e, 0x70, 0x73, 0x65, 0x75,
  0x64, 0x6f, 0x5f, 0x71, 0x63, 0x6f, 0x6e, 0x73, 0x74, 0x34, 0x00, 0x00,
  0x01, 0x00, 0x00, 0x00, 0x40, 0x00, 0x00, 0x00, 0xf6, 0xfb, 0xff, 0xff,
  0x00, 0x00, 0x00, 0x01, 0x14, 0x00, 0x00, 0x00, 0xa8, 0x01, 0x00, 0x00,
  0x05, 0x00, 0x00, 0x00, 0x00, 0x00, 0x00, 0x09, 0xb4, 0x01, 0x00, 0x00,
  0x5c, 0xfb, 0xff, 0xff, 0x08, 0x00, 0x00, 0x00, 0x0c, 0x01, 0x00, 0x00,
  0x20, 0x00, 0x00, 0x00, 0x00, 0x00, 0x00, 0x00, 0x00, 0x00, 0x00, 0x00,
  0x00, 0x00, 0x00, 0x00, 0x00, 0x00, 0x00, 0x00, 0x00, 0x00, 0x00, 0x00,
  0x00, 0x00, 0x00, 0x00, 0x00, 0x00, 0x00, 0x00, 0x00, 0x00, 0x00, 0x00,
  0x00, 0x00, 0x00, 0x00, 0x00, 0x00, 0x00, 0x00, 0x00, 0x00, 0x00, 0x00,
  0x00, 0x00, 0x00, 0x00, 0x00, 0x00, 0x00, 0x00, 0x00, 0x00, 0x00, 0x00,
  0x00, 0x00, 0x00, 0x00, 0x00, 0x00, 0x00, 0x00, 0x00, 0x00, 0x00, 0x00,
  0x00, 0x00, 0x00, 0x00, 0x00, 0x00, 0x00, 0x00, 0x00, 0x00, 0x00, 0x00,
  0x00, 0x00, 0x00, 0x00, 0x00, 0x00, 0x00, 0x00, 0x00, 0x00, 0x00, 0x00,
  0x00, 0x00, 0x00, 0x00, 0x00, 0x00, 0x00, 0x00, 0x00, 0x00, 0x00, 0x00,
  0x00, 0x00, 0x00, 0x00, 0x00, 0x00, 0x00, 0x00, 0x00, 0x00, 0x00, 0x00,
  0x00, 0x00, 0x00, 0x00, 0x00, 0x00, 0x00, 0x00, 0x00, 0x00, 0x00, 0x00,
  0x00, 0x00, 0x00, 0x00, 0x00, 0x00, 0x00, 0x00, 0x00, 0x00, 0x00, 0x00,
  0x00, 0x00, 0x00, 0x00, 0x00, 0x00, 0x00, 0x00, 0x00, 0x00, 0x00, 0x00,
  0x00, 0x00, 0x00, 0x00, 0x00, 0x00, 0x00, 0x00, 0x00, 0x00, 0x00, 0x00,
  0x00, 0x00, 0x00, 0x00, 0x00, 0x00, 0x00, 0x00, 0x00, 0x00, 0x00, 0x00,
  0x00, 0x00, 0x00, 0x00, 0x00, 0x00, 0x00, 0x00, 0x00, 0x00, 0x00, 0x00,
  0x00, 0x00, 0x00, 0x00, 0x00, 0x00, 0x00, 0x00, 0x00, 0x00, 0x00, 0x00,
  0x00, 0x00, 0x00, 0x00, 0x00, 0x00, 0x00, 0x00, 0x00, 0x00, 0x00, 0x00,
  0x00, 0x00, 0x00, 0x00, 0x00, 0x00, 0x00, 0x00, 0x00, 0x00, 0x00, 0x00,
  0x00, 0x00, 0x00, 0x00, 0x00, 0x00, 0x00, 0x00, 0x00, 0x00, 0x00, 0x00,
  0x00, 0x00, 0x00, 0x00, 0x00, 0x00, 0x00, 0x00, 0x00, 0x00, 0x00, 0x00,
  0x00, 0x00, 0x00, 0x00, 0x00, 0x00, 0x00, 0x00, 0x00, 0x00, 0x00, 0x00,
  0x20, 0x00, 0x00, 0x00, 0xae, 0xb3, 0x42, 0x3b, 0xd5, 0x26, 0x25, 0x3b,
  0x16, 0x66, 0x2d, 0x3b, 0x2f, 0x48, 0x2c, 0x3b, 0x9f, 0x3e, 0x1c, 0x3b,
  0x95, 0x3a, 0x5f, 0x3b, 0xd7, 0x37, 0x20, 0x3b, 0xbc, 0x6f, 0x67, 0x3b,
  0x6d, 0xe8, 0x10, 0x3b, 0x9b, 0xc8, 0x26, 0x3b, 0x20, 0xf4, 0x28, 0x3b,
  0x7d, 0xa8, 0x23, 0x3b, 0x10, 0xa3, 0x1c, 0x3b, 0x3a, 0x70, 0x3b, 0x3b,
  0x1f, 0x64, 0x0b, 0x3b, 0xd5, 0x40, 0x13, 0x3b, 0x5b, 0x2c, 0x18, 0x3b,
  0x2e, 0xa5, 0x2d, 0x3b, 0x8c, 0x29, 0x3f, 0x3b, 0x3a, 0x3d, 0x2b, 0x3b,
  0x6b, 0x1f, 0x24, 0x3b, 0x47, 0xaa, 0x2a, 0x3b, 0x6d, 0x95, 0x36, 0x3b,
  0x50, 0x5a, 0x2b, 0x3b, 0xdc, 0x97, 0x35, 0x3b, 0xfd, 0x59, 0x1b, 0x3b,
  0x22, 0x7f, 0x72, 0x3b, 0xd5, 0xfa, 0x04, 0x3b, 0x41, 0x26, 0x35, 0x3b,
  0x49, 0x40, 0x67, 0x3b, 0xd3, 0xac, 0x2e, 0x3b, 0xd5, 0x29, 0x23, 0x3b,
  0x12, 0x00, 0x00, 0x00, 0x74, 0x66, 0x6c, 0x2e, 0x70, 0x73, 0x65, 0x75,
  0x64, 0x6f, 0x5f, 0x71, 0x63, 0x6f, 0x6e, 0x73, 0x74, 0x33, 0x00, 0x00,
  0x02, 0x00, 0x00, 0x00, 0x20, 0x00, 0x00, 0x00, 0x40, 0x00, 0x00, 0x00,
  0xce, 0xfd, 0xff, 0xff, 0x00, 0x00, 0x00, 0x01, 0x14, 0x00, 0x00, 0x00,
  0xa4, 0x01, 0x00, 0x00, 0x04, 0x00, 0x00, 0x00, 0x00, 0x00, 0x00, 0x02,
  0xb0, 0x01, 0x00, 0x00, 0x34, 0xfd, 0xff, 0xff, 0x08, 0x00, 0x00, 0x00,
  0x08, 0x01, 0x00, 0x00, 0x20, 0x00, 0x00, 0x00, 0x00, 0x00, 0x00, 0x00,
  0x00, 0x00, 0x00, 0x00, 0x00, 0x00, 0x00, 0x00, 0x00, 0x00, 0x00, 0x00,
  0x00, 0x00, 0x00, 0x00, 0x00, 0x00, 0x00, 0x00, 0x00, 0x00, 0x00, 0x00,
  0x00, 0x00, 0x00, 0x00, 0x00, 0x00, 0x00, 0x00, 0x00, 0x00, 0x00, 0x00,
  0x00, 0x00, 0x00, 0x00, 0x00, 0x00, 0x00, 0x00, 0x00, 0x00, 0x00, 0x00,
  0x00, 0x00, 0x00, 0x00, 0x00, 0x00, 0x00, 0x00, 0x00, 0x00, 0x00, 0x00,
  0x00, 0x00, 0x00, 0x00, 0x00, 0x00, 0x00, 0x00, 0x00, 0x00, 0x00, 0x00,
  0x00, 0x00, 0x00, 0x00, 0x00, 0x00, 0x00, 0x00, 0x00, 0x00, 0x00, 0x00,
  0x00, 0x00, 0x00, 0x00, 0x00, 0x00, 0x00, 0x00, 0x00, 0x00, 0x00, 0x00,
  0x00, 0x00, 0x00, 0x00, 0x00, 0x00, 0x00, 0x00, 0x00, 0x00, 0x00, 0x00,
  0x00, 0x00, 0x00, 0x00, 0x00, 0x00, 0x00, 0x00, 0x00, 0x00, 0x00, 0x00,
  0x00, 0x00, 0x00, 0x00, 0x00, 0x00, 0x00, 0x00, 0x00, 0x00, 0x00, 0x00,
  0x00, 0x00, 0x00, 0x00, 0x00, 0x00, 0x00, 0x00, 0x00, 0x00, 0x00, 0x00,
  0x00, 0x00, 0x00, 0x00, 0x00, 0x00, 0x00, 0x00, 0x00, 0x00, 0x00, 0x00,
  0x00, 0x00, 0x00, 0x00, 0x00, 0x00, 0x00, 0x00, 0x00, 0x00, 0x00, 0x00,
  0x00, 0x00, 0x00, 0x00, 0x00, 0x00, 0x00, 0x00, 0x00, 0x00, 0x00, 0x00,
  0x00, 0x00, 0x00, 0x00, 0x00, 0x00, 0x00, 0x00, 0x00, 0x00, 0x00, 0x00,
  0x00, 0x00, 0x00, 0x00, 0x00, 0x00, 0x00, 0x00, 0x00, 0x00, 0x00, 0x00,
  0x00, 0x00, 0x00, 0x00, 0x00, 0x00, 0x00, 0x00, 0x00, 0x00, 0x00, 0x00,
  0x00, 0x00, 0x00, 0x00, 0x00, 0x00, 0x00, 0x00, 0x00, 0x00, 0x00, 0x00,
  0x00, 0x00, 0x00, 0x00, 0x00, 0x00, 0x00, 0x00, 0x00, 0x00, 0x00, 0x00,
  0x00, 0x00, 0x00, 0x00, 0x00, 0x00, 0x00, 0x00, 0x00, 0x00, 0x00, 0x00,
  0x20, 0x00, 0x00, 0x00, 0xab, 0xfb, 0x83, 0x38, 0x54, 0xe7, 0x5f, 0x38,
  0xa7, 0x15, 0x6b, 0x38, 0x0a, 0x92, 0x69, 0x38, 0xf1, 0xd3, 0x53, 0x38,
  0x1b, 0x52, 0x97, 0x38, 0x08, 0x37, 0x59, 0x38, 0x6b, 0xe2, 0x9c, 0x38,
  0x4e, 0x75, 0x44, 0x38, 0xb9, 0x1d, 0x62, 0x38, 0xde, 0x0e, 0x65, 0x38,
  0xf8, 0xe0, 0x5d, 0x38, 0x1e, 0x5c, 0x54, 0x38, 0x64, 0x1e, 0x7e, 0x38,
  0x94, 0xfa, 0x3c, 0x38, 0x4e, 0xa3, 0x47, 0x38, 0xe5, 0x4e, 0x4e, 0x38,
  0x31, 0x6b, 0x6b, 0x38, 0x6d, 0x95, 0x81, 0x38, 0x1d, 0x28, 0x68, 0x38,
  0x35, 0x82, 0x5e, 0x38, 0xe4, 0x60, 0x67, 0x38, 0x78, 0x89, 0x77, 0x38,
  0x8c, 0x4f, 0x68, 0x38, 0xb3, 0x31, 0x76, 0x38, 0xfa, 0x9d, 0x52, 0x38,
  0xbf, 0x61, 0xa4, 0x38, 0x69, 0x49, 0x34, 0x38, 0xad, 0x97, 0x75, 0x38,
  0x41, 0xc2, 0x9c, 0x38, 0xa0, 0xd0, 0x6c, 0x38, 0x41, 0x35, 0x5d, 0x38,
  0x12, 0x00, 0x00, 0x00, 0x74, 0x66, 0x6c, 0x2e, 0x70, 0x73, 0x65, 0x75,
  0x64, 0x6f, 0x5f, 0x71, 0x63, 0x6f, 0x6e, 0x73, 0x74, 0x32, 0x00, 0x00,
  0x01, 0x00, 0x00, 0x00, 0x20, 0x00, 0x00, 0x00, 0x9e, 0xff, 0xff, 0xff,
  0x00, 0x00, 0x00, 0x01, 0x14, 0x00, 0x00, 0x00, 0x30, 0x00, 0x00, 0x00,
  0x03, 0x00, 0x00, 0x00, 0x00, 0x00, 0x00, 0x09, 0x3c, 0x00, 0x00, 0x00,
  0x04, 0xff, 0xff, 0xff, 0x08, 0x00, 0x00, 0x00, 0x10, 0x00, 0x00, 0x00,
  0x01, 0x00, 0x00, 0x00, 0x00, 0x00, 0x00, 0x00, 0x00, 0x00, 0x00, 0x00,
  0x01, 0x00, 0x00, 0x00, 0xfb, 0x89, 0x91, 0x3b, 0x12, 0x00, 0x00, 0x00,
  0x74, 0x66, 0x6c, 0x2e, 0x70, 0x73, 0x65, 0x75, 0x64, 0x6f, 0x5f, 0x71,
  0x63, 0x6f, 0x6e, 0x73, 0x74, 0x31, 0x00, 0x00, 0x02, 0x00, 0x00, 0x00,
  0x01, 0x00, 0x00, 0x00, 0x20, 0x00, 0x00, 0x00, 0x00, 0x00, 0x16, 0x00,
  0x1c, 0x00, 0x18, 0x00, 0x17, 0x00, 0x10, 0x00, 0x0c, 0x00, 0x08, 0x00,
  0x00, 0x00, 0x00, 0x00, 0x00, 0x00, 0x07, 0x00, 0x16, 0x00, 0x00, 0x00,
  0x00, 0x00, 0x00, 0x01, 0x14, 0x00, 0x00, 0x00, 0x30, 0x00, 0x00, 0x00,
  0x02, 0x00, 0x00, 0x00, 0x00, 0x00, 0x00, 0x02, 0x3c, 0x00, 0x00, 0x00,
  0x7c, 0xff, 0xff, 0xff, 0x08, 0x00, 0x00, 0x00, 0x10, 0x00, 0x00, 0x00,
  0x01, 0x00, 0x00, 0x00, 0x00, 0x00, 0x00, 0x00, 0x00, 0x00, 0x00, 0x00,
  0x01, 0x00, 0x00, 0x00, 0x81, 0x62, 0x60, 0x39, 0x11, 0x00, 0x00, 0x00,
  0x74, 0x66, 0x6c, 0x2e, 0x70, 0x73, 0x65, 0x75, 0x64, 0x6f, 0x5f, 0x71,
  0x63, 0x6f, 0x6e, 0x73, 0x74, 0x00, 0x00, 0x00, 0x01, 0x00, 0x00, 0x00,
  0x01, 0x00, 0x00, 0x00, 0x00, 0x00, 0x16, 0x00, 0x20, 0x00, 0x1c, 0x00,
  0x1b, 0x00, 0x14, 0x00, 0x10, 0x00, 0x0c, 0x00, 0x00, 0x00, 0x00, 0x00,
  0x08, 0x00, 0x07, 0x00, 0x16, 0x00, 0x00, 0x00, 0x00, 0x00, 0x00, 0x01,
  0x18, 0x00, 0x00, 0x00, 0x2c, 0x00, 0x00, 0x00, 0x48, 0x00, 0x00, 0x00,
  0x01, 0x00, 0x00, 0x00, 0x00, 0x00, 0x00, 0x09, 0x60, 0x00, 0x00, 0x00,
  0x02, 0x00, 0x00, 0x00, 0xff, 0xff, 0xff, 0xff, 0x60, 0x00, 0x00, 0x00,
  0x0c, 0x00, 0x0c, 0x00, 0x00, 0x00, 0x00, 0x00, 0x08, 0x00, 0x04, 0x00,
  0x0c, 0x00, 0x00, 0x00, 0x08, 0x00, 0x00, 0x00, 0x10, 0x00, 0x00, 0x00,
  0x01, 0x00, 0x00, 0x00, 0xca, 0xff, 0xff, 0xff, 0xff, 0xff, 0xff, 0xff,
  0x01, 0x00, 0x00, 0x00, 0x79, 0x87, 0x32, 0x3d, 0x1e, 0x00, 0x00, 0x00,
  0x73, 0x65, 0x72, 0x76, 0x69, 0x6e, 0x67, 0x5f, 0x64, 0x65, 0x66, 0x61,
  0x75, 0x6c, 0x74, 0x5f, 0x6b, 0x65, 0x72, 0x61, 0x73, 0x5f, 0x74, 0x65,
  0x6e, 0x73, 0x6f, 0x72, 0x3a, 0x30, 0x00, 0x00, 0x02, 0x00, 0x00, 0x00,
  0x01, 0x00, 0x00, 0x00, 0x60, 0x00, 0x00, 0x00, 0x02, 0x00, 0x00, 0x00,
  0x24, 0x00, 0x00, 0x00, 0x04, 0x00, 0x00, 0x00, 0xf0, 0xff, 0xff, 0xff,
  0x0e, 0x00, 0x00, 0x00, 0x02, 0x00, 0x00, 0x00, 0x00, 0x00, 0x00, 0x0e,
  0x0c, 0x00, 0x10, 0x00, 0x0f, 0x00, 0x00, 0x00, 0x08, 0x00, 0x04, 0x00,
  0x0c, 0x00, 0x00, 0x00, 0x09, 0x00, 0x00, 0x00, 0x04, 0x00, 0x00, 0x00,
  0x00, 0x00, 0x00, 0x09
};
const unsigned int bridge_model_tflite_len = 13480;

#endif // BRIDGE_MODEL_H